FFFFFB83
FFFFFD0D
FFFFFB42
FFFFFBE7
0000071C
FFFFFC15
FFFFFBEE
00000184
FFFFFB0B
FFFFF934
FFFFFE35
000005F7
FFFFFCE7
FFFFFB11
000000FA
FFFFFCD1
00000200
FFFFFF9F
00000325
FFFFFC69
0000015D
FFFFFC34
00000433
FFFFF93C
FFFFF9BB
FFFFFB76
FFFFFC29
FFFFFC67
FFFFFD8F
FFFFF97F
FFFFFF13
00000492
00000315
000006DC
00000644
00000402
FFFFFBA8
FFFFFB70
FFFFFECA
FFFFFAA5
FFFFF880
00000120
000001F4
FFFFFC4B
FFFFFBAA
FFFFFAE6
00000400
FFFFFC74
FFFFFC11
FFFFFD43
FFFFFB76
FFFFFC53
FFFFFFE9
FFFFFB1E
000001A9
0000063B
FFFFFA63
FFFFFA7D
FFFFFFEE
FFFFFBC3
