FFFFFFDD
FFFFFF7A
FFFFFF17
00000148
FFFFFF6F
FFFFFF8E
FFFFFCB1
FFFFFE01
FFFFFED3
000000BF
FFFFFE7F
FFFFFCAC
FFFFFE75
FFFFFFCA
FFFFFF40
FFFFFFB1
FFFFFF08
FFFFFC4F
FFFFFE14
FFFFFDE9
0000001B
FFFFFF31
FFFFFDBC
FFFFFEA0
FFFFFDC8
0000029A
00000042
FFFFFE55
FFFFFEEA
FFFFFE74
FFFFFEEA
000000C0
FFFFFE8A
FFFFFF33
FFFFFF18
FFFFFE42
FFFFFE19
FFFFFFD4
FFFFFB6B
0000004F
FFFFFCAA
FFFFFF26
0000001B
FFFFFD98
00000096
000000CC
00000179
FFFFFDB6
FFFFFF24
00000104
0000020C
000000BA
0000006B
FFFFFE0B
FFFFFF07
FFFFFC25
FFFFFEE3
FFFFFED1
FFFFFEDF
000001AE
FFFFFD8F
00000128
FFFFFF87
FFFFFF0D
00000154
000001D0
FFFFFEAB
00000162
0000004A
00000180
00000283
00000270
FFFFFD29
00000017
FFFFFD5D
FFFFFE6C
FFFFFFA0
000000B8
FFFFFDEF
FFFFFDBA
00000066
FFFFFFA2
000000AB
000000A9
FFFFFD66
FFFFFCCA
FFFFFEC8
FFFFFEAB
FFFFFF91
FFFFFECE
FFFFFFB4
FFFFFE31
00000392
00000105
FFFFFE37
FFFFFD7A
