FFFFFE25
FFFFFEB6
00000136
FFFFFECF
FFFFFE2C
FFFFFCD2
FFFFFE8A
00000172
FFFFFF3E
FFFFFEE0
0000005E
FFFFFFBF
FFFFFFAB
FFFFFE2B
00000078
00000098
FFFFFF00
FFFFFF45
FFFFFFBC
FFFFFDAA
FFFFFF24
FFFFFF3E
FFFFFFB1
0000003C
00000073
000000FF
FFFFFF24
FFFFFE50
FFFFFF9C
00000063
FFFFFE1E
FFFFFF3B
0000003D
FFFFFD24
FFFFFF6A
FFFFFE7C
000000DA
FFFFFEDE
FFFFFFE7
00000039
FFFFFE33
0000009F
FFFFFE63
FFFFFF10
00000016
FFFFFE99
FFFFFDE6
FFFFFEC4
FFFFFFDF
00000018
00000121
FFFFFDC0
0000006A
FFFFFF8A
FFFFFF3B
0000004D
FFFFFF56
FFFFFC9D
FFFFFEAD
FFFFFF20
