FFFFFD23
FFFFFDD8
000000DB
FFFFFEA9
FFFFFF83
000000F8
FFFFFEBB
FFFFFE7A
0000018B
0000007E
00000252
FFFFFE10
FFFFFFB7
0000006F
FFFFFDF1
FFFFFE3F
00000106
00000037
FFFFFF44
00000212
0000026B
FFFFFE20
FFFFFFAA
00000258
FFFFFE3B
FFFFFFAB
FFFFFC73
FFFFFE95
FFFFFFD3
FFFFFE5C
FFFFFFB4
FFFFFF70
00000301
00000214
FFFFFCA6
FFFFFD59
00000085
00000242
FFFFFD9B
FFFFFE39
00000013
FFFFFFFC
FFFFFF06
000002ED
FFFFFF2F
FFFFFE74
FFFFFF28
0000018C
000001B0
FFFFFDE8
FFFFFF70
FFFFFE82
FFFFFDEE
FFFFFF8B
0000000B
FFFFFDA1
FFFFFCCB
000000F5
FFFFFDDE
FFFFFDAC
