00000093
00000032
FFFFFF1F
FFFFFF1C
FFFFFF19
00000050
00000223
000000DF
FFFFFF7F
FFFFFE82
00000071
FFFFFF95
0000017C
0000014F
FFFFFFE5
0000007C
0000007A
FFFFFFE6
FFFFFE5E
FFFFFD42
0000007A
FFFFFFA5
FFFFFDDF
FFFFFFE4
0000000C
FFFFFFCE
00000046
FFFFFEF8
FFFFFEC4
0000018C
FFFFFDCD
FFFFFEFA
FFFFFF3B
FFFFFD1B
FFFFFF71
00000182
FFFFFE93
0000001E
FFFFFE55
FFFFFEA5
FFFFFF41
FFFFFF8F
FFFFFEBC
FFFFFF61
00000032
FFFFFED0
00000140
FFFFFEC2
0000007E
00000107
FFFFFF06
FFFFFEAE
FFFFFFDD
FFFFFFB1
FFFFFEAD
000001E3
FFFFFED9
0000006E
FFFFFE43
00000076
