FFFFFF56
FFFFFE97
00000078
FFFFFE75
FFFFFF83
FFFFFE82
FFFFFE1C
0000000C
00000096
0000001C
000000BB
00000081
00000056
000000CC
FFFFFFCA
00000066
FFFFFEA3
000000C4
0000003B
FFFFFE2D
000000E8
FFFFFE72
FFFFFE11
0000000A
FFFFFFB8
FFFFFF33
FFFFFFC6
FFFFFF2D
FFFFFFF5
FFFFFF74
FFFFFEF8
FFFFFF8E
0000001F
FFFFFEA8
FFFFFCBD
00000103
FFFFFF65
FFFFFFB9
FFFFFF65
FFFFFEDD
FFFFFFC8
0000008A
000000C2
FFFFFEB3
FFFFFFDF
0000015A
00000037
FFFFFE3F
FFFFFE68
FFFFFF67
0000001F
FFFFFEFD
00000025
FFFFFF47
FFFFFF0D
00000298
00000080
FFFFFEA0
FFFFFE72
000000EC
