0000017A
00000053
FFFFFF3A
FFFFFF3A
FFFFFEA8
FFFFFEFD
00000056
FFFFFEAF
FFFFFDB9
FFFFFE39
FFFFFF92
00000148
FFFFFDFE
FFFFFE90
FFFFFFE6
0000009D
FFFFFFB5
FFFFFF1D
FFFFFE45
FFFFFBF0
FFFFFED6
0000001D
FFFFFE2D
FFFFFE24
FFFFFE8B
FFFFFFF8
00000065
FFFFFEF5
FFFFFECC
FFFFFEDB
FFFFFF1B
FFFFFF15
FFFFFFA5
FFFFFFD5
FFFFFFC4
000000B8
FFFFFF45
FFFFFE58
FFFFFFD1
FFFFFEA5
000000BD
FFFFFF12
000000BA
FFFFFED7
FFFFFEB5
FFFFFF24
FFFFFEA8
FFFFFE97
FFFFFDFA
FFFFFE9E
000000D4
000000E3
000000A6
FFFFFF18
FFFFFEB3
000001AF
FFFFFFD9
FFFFFD6C
FFFFFF8E
FFFFFE4B
