00000111
FFFFFDEC
00000080
000001F0
FFFFFE65
FFFFFF04
FFFFFF0C
FFFFFEB9
FFFFFEC3
FFFFFE7A
00000258
FFFFFF37
0000029F
FFFFFDA3
000000C4
FFFFFE7E
FFFFFD51
00000242
00000135
FFFFFDE3
0000028F
FFFFFDAE
000000B6
0000028D
FFFFFE1E
0000016F
0000004D
00000170
000000EC
FFFFFDC7
FFFFFDB2
000002AC
000001A9
00000177
FFFFFDD7
00000135
FFFFFFE1
FFFFFF6B
FFFFFE07
00000028
FFFFFF90
FFFFFEC7
FFFFFE2B
FFFFFF38
FFFFFDD4
00000169
FFFFFF11
FFFFFE66
FFFFFE2D
0000023B
FFFFFF4B
FFFFFFBC
00000026
00000274
000000C5
FFFFFE21
00000220
FFFFFF74
000000B9
FFFFFFF6
