2A8AA
2A82A
2A82A
2FEF8
28EFB
15A2A
3FFFC
3FB2A
3F2AA
3F3FF
25A8E
253CF
3F8DA
3FA2A
3F3E2
2FFFF
1AAAA
0F3EF
22BEB
23BEB
0FAE6
3FFFF
3FFFF
2AAAF
3FABA
3FC30
2BABA
3F3E8
3FFEB
2BA9A
3EFAE
2ABA9
3FFE2
300BE
3F3BE
3EA69
3F2FB
2A98B
3EDBA
32E71
2AA69
2BCCF
3BFFF
2AA8A
3BFFF
2A9AA
3FFFF
2F3FF
2A9AA
3FE3C
3FFFF
3BFFC
2A2BE
3BFFC
26AAA
28FFF
0BFFF
2EF3E
29AA9
2EFBE
2AAAA
3FFFF
2A665
1BAEA
2333F
28A3B
298BA
2238E
298AA
3C2EB
3CA2A
3EFFF
