2AF0C
2AAAA
28FFF
228AA
0AA8A
3FFFF
32F3F
2A8AA
28FFF
08FBC
2AAAA
283FF
3FF0C
2F3AA
3FFFF
2AAAA
2AAAA
33FFF
2AAAA
2AAAA
3FFFF
3EFAF
0A8AB
3FFEF
2A2AA
2AAAA
33FFF
3ACB2
2AA8A
0A0BA
2AAAA
2AAAA
3FFFF
2A8A3
3F38F
3FFFF
2AAAA
2AAAA
3FFFF
3F8BF
3FFFF
2ABBF
3FFF3
3AEBA
3FF33
3F00A
2AAAA
03FFF
3FFFF
26BA8
3CFFF
33BBF
3FFFF
2ABAB
32F0C
0ACAA
3FFFF
2ACAA
2AF2A
20FFF
156AB
3FFFF
3C3FB
20AAA
22AAA
3FFFF
3FFFF
2AB8C
3FFBF
32FBC
2AAAA
0833C
33C32
2A2BA
2A0BA
2AF0E
2AAAA
28FFF
2AFA2
2AAAA
22FFF
2AAAA
028AA
3FFFF
3FFFF
3FFFF
3FFE3
3AFBC
26AAA
2A3BC
2AAA5
2A2BA
3FFFF
2AAB2
330B2
3FFFF
3FFEF
28A9B
3FFFF
2AA8A
3FEFF
3FFFF
2FBBC
1AA72
3FFFF
3FFFF
0AEB2
3FFFF
3EFFF
3FFFF
16696
3FFFF
2AAAA
20FCF
3EABF
2AABF
28AFF
3FFFF
2AAAA
20FCF
22A22
3FFCE
15699
2556B
3FFFF
2AABF
2AAAF
3FFFF
3FBBF
2AFAF
2A8A0
20FEF
2A0AA
2AAAA
3FFFF
3FFFF
2A2A9
2A2AA
2AFB0
3FFFF
3FFFF
2A32A
2A32A
00FFF
2AA8A
2A2BA
3FFFF
2AA9A
2A8AA
3FFFF
2AFBE
2AAAA
28FFF
2AA85
2AABA
3FFFF
3FC0B
2BAEF
23AEF
2A0AA
2AAAA
3CFFF
3CB80
3FFFF
3FF3C
3302A
3BA96
3FFEB
2A0BA
2AAAA
38FFF
3FCBF
3FFFF
2AABF
3FEFB
3FE3B
3FCFF
2AFA2
2AAAA
2AFFF
