292BE
3EBFF
0AB3F
2AABA
03FFF
0FFFC
2AFAF
2AFAF
0AFAF
2BFF3
2BEC3
1B928
3AB8C
29AB2
3FFFF
3FC3E
32EB2
2AE42
2F8EF
2AEAA
2ACA2
2AAA8
2AAA3
0FFCF
3EFAA
3FFEA
3FFEF
2FEEA
2FAEA
2FAEA
2AABC
3FEFF
0CA3F
3FFE3
3FFCE
3FFEE
3FCFE
02EBE
0BEBE
3F0F8
29A4A
3FFFF
2E98A
2EABB
3FCEB
0A32A
22BE8
3FFCF
3FFFF
28EBF
2AEBF
3CAAE
2FBFF
2A6AA
3FFFF
2AA8F
2883F
2F8FE
16ABE
2A8BE
3FFFE
3FFFE
3F3FE
3EBFC
29A7E
3FFFE
2A28E
3FFFF
2AA8E
2FCEB
2FAE8
2FAEB
2EA3A
2FACA
2AAF2
2AEBC
2ACBE
3FFFF
3AFBF
3FFFF
25E72
2C22C
1A9AC
3FCEF
2AAB2
2AABF
2AABE
2AABE
3EABC
3FFFF
32FAE
3FFFE
3AFAA
3F0EA
3FB2F
3F3EF
2AAAA
23BFF
0FBFF
2AA8A
2F8F3
3FFFF
3FFB2
32FBE
3CF3C
2BE8C
2FFEF
169AA
3ECFA
32EBA
2AAAA
2FFFF
2CBF3
2AAEB
2FCFA
2AE8A
2AC32
2AAFF
2EAFC
2AABE
3AFAF
08FCF
2ABAF
3EFFE
29ABA
3AFCA
2EEEF
2E2EF
3FFEF
26ABA
3FFFF
3FCBE
3EF89
2AA4A
0AEB2
2EEBA
22EAA
22E28
2AAAF
28E2F
2BAEF
3FFFF
2CACF
2E8EF
2EFEA
02FEA
2AEB9
0AAAF
3FFFF
3FFFF
2AAA8
2ABB3
3FFFF
3F2BE
23AFF
1A5AE
2AFA2
22C28
28A1A
2CACE
1AAB2
2EBFF
3FFCF
3F23F
2AABE
2AB23
03BEF
3FFEF
2FAFC
2FAFF
1AABE
2F002
1A58F
236EF
3F2BA
2BAF8
189BB
3FFEF
3FFFF
28A8E
