3CC8F
3AAAA
3AAAB
29AA9
0A82A
3EFFF
3FFFF
2AA96
2B0FF
09A9A
3B3FF
33F3F
3FFFF
2EAAA
2AAAA
2AAAA
0C3FF
2AAAA
2569A
3ABFF
3CFFF
29A6A
32BAC
3FFFF
3FFFF
22AAA
0AAAA
3E8EF
2861F
3BAEF
3CFFF
3CF3C
3CFFF
29A69
2ABAE
3FF3F
3CFEF
26598
0BBEF
0CFFF
2A965
02E33
2AA69
0A3AC
33FFF
3EAEF
3FAEF
3EACF
3FFFF
0AA65
3A0BA
2F8EB
3FFF3
3EFCB
2CA2B
2E7DB
0FBEB
3FFF3
3AAB8
3AAAA
3FFEB
3FB1B
3F3EB
23C3F
1AA9A
28C0F
3FFFF
2EAAA
2AAAA
23BEB
3FFFF
3FBF8
29AAA
2AFCF
3CFFF
38AAF
2CAAF
2A698
3FFFF
3FFEF
2AA9A
29AAA
3ABAA
0AAAA
3FFFF
2EAAA
2EAAA
3FC3C
1BA9A
2BA2F
3FFFF
2AAA5
2A28B
0CF3F
3FFFF
223BF
138CB
0FFFB
0FCC8
3A69B
33AEF
38A9A
3FFFF
3FBEF
2AB2C
3FFEF
0BADF
3AA9F
3FFFF
3E0BA
2AAAA
18AFB
2CFFF
2A9AA
0A3A2
2AAAA
0AF3C
2AAAA
28AEF
3BFCF
0FFFF
1AAA5
20E2A
3FFFF
0C22A
2AAAA
3FFFF
2AAAA
2AAAA
23AEB
3FFFF
2AAA6
2FFFF
2AAAA
2AAA2
2FAEB
3FEF3
229AA
3F82A
3C2AA
3FABA
3FFFF
3CFFF
3CFCF
3FFFA
3AAA5
3FEFA
2AAAA
288EF
0F3EF
0AAAA
32CFF
2AAAA
2AAA9
3A30F
3CFFF
0A8AA
2ABAA
2AF3F
3AA0C
26A2F
2BAFF
3CA2B
3EAB3
3AA66
29AAA
0A08A
3CF3F
3FFFF
3FFFF
1EA1A
2BFFF
3EFFF
2ACFF
2AAAA
2A8AE
00FCF
0AAAA
2A2BA
3FF3F
