2A2B3
32BFF
2ABFF
16A8A
3FFFF
3FFF2
0FCEF
2FFE3
2F3DA
2822F
2AEA8
2BAE8
2AABF
3F33F
2ABFF
2FABA
22AB9
2ACBA
3F3EB
3FFFF
25A6E
2AAEA
2CFEF
3FFEA
3FFAA
3FFE2
3F3EA
2FC0A
3FCEA
2F8EA
2AA82
3FEFF
0AEBF
3FFEF
2AA0E
3FFEF
3FFFA
0FCBE
2AEBE
3FB3E
32ABE
320BF
2AA2A
2A8C3
2FAEA
2A2AA
2ACBE
3FFCF
3F3EF
2AAEC
0BCFF
2AF3C
2BBFF
1A5AA
3FFE3
20AFF
2AABF
0FACA
2AE8E
29EBE
3FFFF
28FEF
3FFEC
3FAFC
299BE
2AABF
28A2A
3FEF8
322BA
32EB2
2AEAA
2FA2B
22AB2
2AABC
18ABF
0A2BE
2AEBE
3EFFE
33FBF
3FFEB
2FAAA
2AEAE
2A2AA
3FEEB
2FAFA
2FAFF
25A7E
3A2BE
3F2FF
32F3F
3EFEE
3EF22
3FFEA
3FFEF
28FAF
2ABE2
2AA3A
0FFFF
003FA
2A9AA
3FBFF
2F8FF
3FFEA
3F8B0
3EAB2
28E8F
3BFFF
1696A
2EA2A
3EA8A
3EFF0
23FF3
2BBFB
2BAEB
3FFEF
2AAFF
2AABF
28A3B
3FFFF
25D7A
3FFEF
0AF2F
2AB2B
3E02A
259BA
3CFFF
2AEAC
0AE23
2AEAA
2AA89
0FFFF
2B28E
2FA8A
2AA8A
0FFFF
32FCB
29AAA
22FE3
2ABEF
02FEF
28FEC
3E0EF
299AB
0E2EF
2EAFA
3FFFE
29A7D
2AAAA
3FFFF
33CFE
3E3BB
2A3BF
0CFFF
2AAA2
2AA8F
2FAEF
2AA2F
3ACEF
33FEF
2BABE
1A9BF
2FA3F
3FFFA
0E2BA
0AABE
0ACAA
3AFAA
3EFAA
2B2FC
2BAFF
1698A
2BFF2
169BF
1BA33
3FFBA
2BCFB
2B9AA
0FFEF
3FFFF
03EBF
