2AAAA
0EFF8
2AAAA
2BEEC
2AA8A
22C38
3FFEF
30AA8
2AA9A
2A2BA
3FFFB
0AEBA
3FFFF
2AAAA
2AAB2
2A98A
3AE3F
3FCFC
2AAAA
2AAB2
222BA
2AABA
322BC
3F0FF
3FFFF
2AAAA
2A2BA
2A9B2
08ABF
3FAFF
3CBFF
3F33C
2AABA
2AAAA
2AABA
02ABA
2FBFB
03BFB
2AFB3
2AAAC
2AABF
3EACF
2AA8A
0AEBC
2AAAA
2AABC
28EBF
2AABE
0FEFF
2AABA
2AABC
3FBFF
23FFE
3FF3F
3AEA2
02B2F
2AA9A
2AE82
2AABE
0A2BE
32CBA
3FFFF
2A2BA
0BEAF
2AA6A
0AEBC
3FFEF
02AAA
0AAAA
3CB3A
3FFFF
2AABA
2AA8A
2AE3F
3FAFF
2AA9E
3FB1F
2AA9A
3FFEF
0AA9A
30AAE
2AEA5
08F8A
2AEAA
30FAF
2EA92
2AA9A
2AEAA
2AE8A
2AEBC
2AAAA
2AEBE
0F3FF
0EB33
3FFFF
2AABA
3FFFC
3AEB2
3CF3F
3FEF8
3FE38
3FFFF
2AAA2
2AABA
2203C
3FFFE
3332A
0AAAA
3FFFF
0AAAA
2AA8A
3FFFF
2A88A
2A2BA
2AEAA
2A2BA
3AC30
2AAA9
38FFF
33FFF
3FBEF
2AA95
2AEAE
3FFEB
2AAA5
28F3A
3FFCF
2A2AA
2AE3E
3FFFF
2AAAA
2AAB2
2AAAA
2A2BC
0F8FF
2A2BA
3FFFF
2AABA
3FFEF
2AAAA
2AABE
2AA82
0AA3C
3F8FF
3BEFF
29AAA
3AEBF
2AAAA
2BBEF
2AA9A
2AAAA
2AABE
20A3A
2AAA9
32C3C
3FFFF
2AEA5
2AEAA
2AF8A
3ABBA
3FFF3
0AEBE
3FFEF
3AAAA
30AAA
2AEB2
2AEB2
00A3F
2FBF8
2FBFF
2FB3A
3FFFF
2AAAA
2A28A
3FFFF
32F3E
2ACBE
3FFFE
3A2B9
30CBA
