2AC3E
0FFFE
2CBFE
2AABA
3F8F3
0FAFB
3FFFF
3EFBF
0A3EF
2B80F
2AAAA
2BAC3
3AA8A
3F8BB
3FFFF
3BEBA
3FFFF
0BEEA
3FFCE
2AEA9
3CFCE
332AB
3FE2B
3FFE3
3E2BE
3E2BE
3F0BE
3FFBE
2FEF2
2BAEA
33ABE
3FEFE
3CA3E
3EAAA
3CCAE
3F3A2
22CBA
2EABA
3FFFF
3E3FF
29A88
08BFF
0B28A
3FFFF
2AA4A
2E2EF
2AAAA
3FFFF
3FFFB
3AEBA
261BB
3FEB2
20A8A
2FAEA
3FFFF
08AAA
2BB2F
3FFFF
23AAA
28BBE
3FFFF
3AABA
3CAFB
3FAFF
2AABC
2AABF
1AAF2
2FFFF
2CAFA
3FFEF
2CFEF
2ABEF
0AAAA
33ACF
3FAFF
2A2BA
28AAA
3FFEF
2AF8F
32F8A
3AC8A
0FEFA
3A2A9
3FEFB
2AABA
3FBFF
3A8B2
0AABC
0AACF
3FBFF
0AAAA
3FBFF
3FAAA
2F8EB
0FBAC
3BFBE
2BE8A
33FB9
3BEB9
02ABA
2AABA
2EBB8
3FBF8
3FBF3
3FABA
2BCBE
0FFCC
2A9A9
0AABF
32FBF
2AAAE
2AA2B
3AACB
08AEB
0FFF0
2AAF8
2B3FF
3FAB2
2AAB2
2AAB2
3AABF
3F8BF
3FAAA
328BE
3AABE
33B3E
2AE8B
3AFF3
0ACBB
2AA8A
3FBFF
3ABFE
3AAAA
3FBFF
3F3FF
2ACAF
2AFAF
2AFAF
2CAAF
2F8AF
2FB2F
3CFCF
3C0EA
23ADB
3F3BA
0AABA
2AA72
22ABA
2EBBA
22ABA
33AAA
3FFFF
2AABF
2AAAA
32A83
3F3CF
2AFEE
2AFEE
3EFEC
2EFAE
0ECAE
3F3EE
3FFFF
3EABC
322BC
3CEAA
3FF2A
0FFEF
0FE3E
23ABF
1AA7E
2FA8E
2362E
2F6EC
3EEBA
3FFFF
2B9EB
2AABA
3FAB2
3FA32
