2AA8A
2FFFF
2C3FF
2AAB9
2AA33
0AE33
3FFFE
2AF3F
2ABEF
2AEB2
28EA8
1B9AB
29B8F
0ABAB
0AA2B
3FBFB
2AA7A
2AA8B
0FBFF
29269
3EFBE
2AAF3
28AE8
3FBEB
3FF3A
3FFFF
2BA2B
332F3
269AA
3FFFF
3FEEC
3FEC2
3FEEA
3CF8E
2EEAE
2CEAE
3927A
3CFFF
3FFFF
3E3CB
3E8AB
0EBEB
2B2FB
3AEBA
2A96A
3CFBB
2AAAB
2FFC3
0FBEF
09AA2
099AF
2FBCB
2FBFB
2EBBA
3FFFE
32F3E
2AEBE
3FFEF
2C822
2A82A
3FFFF
3FFBE
0E2B2
3F3FF
2AABE
2AA3E
2AA8E
138FF
1AAFF
2AEBA
3FFFF
2AAAB
2AA8A
2BBCC
0FBFF
2AE8A
22EAA
0FFCF
3EFCB
3FFEA
3EFEA
2ACAE
2AA9E
2AAAC
33AA6
3FFCF
3AAAB
2AAAA
0AABF
3FFFF
2ABCF
3EFFF
3AA96
2BA2A
2A96A
3B3FF
3FFFC
28CEC
3FFEF
0AA8A
2AABA
3AFFB
3F0FA
3FFFF
0FAA8
2AEAA
2BFEC
2AAAA
3BBCF
3A2BE
25972
03BEA
3FBFF
286DF
2A2FA
23FF3
262BB
3FFF3
0927A
3AEBC
3C2BA
3FF3B
269A7
2AA66
3AABB
3A8EB
25AAB
3BBC3
3AAAB
2AA8A
3FFFF
0BA82
3AAA6
3FFFF
3A8BB
2AEBA
3FFFF
2AEAF
29BBF
3AAAE
386A2
3CFBC
2AA9A
2A693
0FFEA
0AFBA
292B9
2AAAA
22E2C
0FCFF
20AA6
3FBCB
2EAA8
3FAAA
2A6A2
3FBEF
2AA88
28A28
3FBEB
3AEAA
3CFCF
3EFEF
03CFA
3FFFF
165AB
3FFFB
2AAAA
3FFFB
1BAC8
1BBFF
1AA8A
2FFF0
1BBFF
1A9B0
082EB
3FFFF
032C3
3FFFF
3FECF
2F28E
