3ECF8
3FFFF
1A6E6
2FFEE
1AAEA
28FFB
2ACAE
2AFAA
2AFEC
3FF3E
3CEB9
22EB9
20AAB
2AAAB
3CFAB
3E3AC
29AAF
323BF
3FFFF
2FBEA
2EBAA
2FBEF
2AAEB
18AEB
2C2B9
2FB3A
2E8B9
2ABAB
20FFF
2AAA6
2FBFF
2F8FF
288EF
0E8AB
3EF2B
2AAAB
2A2EF
2AA22
2AA2A
03ABF
3F3FF
2BAB3
3EEAA
32EBA
2AA69
3FFCF
0BFFF
2AEB2
00AAA
0AFBF
29A4A
2AAAA
3AFAA
3FFFF
3FFFF
3CB8F
3EE7A
3CFFC
3FCBC
3EFBA
2EABA
02ABA
32AAA
2AA33
3EFFF
3FFFF
332AA
2A2AA
3FEFB
2AE8A
3BFFF
2A2AA
3BEEF
0B92A
2A9AB
2BA2A
3FFFF
2BAEB
3BEFF
38EAB
2A9AA
3FEFC
2A9AB
3B9CB
2AFBF
2AFFF
2AAAC
332B8
3A940
3FFBF
3FEEB
3FEAB
2EA9B
0BFFF
2AAFF
2BAFB
2A688
3FFFF
265BF
2AAAA
2BE3A
3FFFF
3AAEB
3AAAB
3CEF3
2A9BA
3FFFF
3B9B8
2AAA2
2AFFF
2AAAA
3BCAE
39A7E
3AEBA
28FEF
2A3A3
3F3FF
23BFF
1A888
2ABF3
2ABDB
0EF8F
2AAAB
3F3EA
0F32A
2BA2A
20FFE
3EF3C
32FCE
3AEAF
3AFFE
3AEBE
3EAE3
3EAAE
3E0AE
3FFEC
2AAEA
2ABEB
2ABBA
2AB8A
3FFBF
3FAAA
3BEBA
3FEF8
33E38
2AAAA
3FFFF
2BA0C
2A6EF
2F4EB
169CE
23FFF
2AAEE
3AB0F
3AA8F
3AE8B
2F2AE
3FFBF
2BEAE
2AABA
33EB3
3FCF3
3AEBE
3FFFF
0AA8F
1AAA8
2BB3F
3FFFF
2AABA
3BFBF
33FFF
3FFFF
2A83F
22ABA
2AAA2
3FFFF
3B2AA
3FBBC
1860C
1B62F
2BAEF
2A6AA
3F3FF
2FA3A
2FA38
2BAB8
3CA8A
2F833
2AA83
2FBEF
3CACF
3FBEF
23BEA
2FBF2
2CBEA
3FFC3
2FAEB
0F2EB
3ECFF
0AEBA
0AEAA
1ABAB
0FFFF
2AE8A
0AEBE
3FFFE
0BAFE
2AEBA
3FF3F
2AFBF
2AABA
08EBA
3FFFF
08BAA
3FBEA
2AAE8
23BE3
3FFBE
2A9BA
3FFCB
2FFFB
2BBEB
33A33
3BEFF
0FBFF
3FFFF
2AEFF
032F8
03ABA
2BFBE
2B9BA
2AEFA
2ACFA
2AEA9
3EAA0
3CFCB
3FC0F
3FFFF
3FFFA
2C3AA
2A9A6
3FFFB
3F0FB
2FAE8
0FAEF
3FCE3
2CBAB
298BE
29AB3
3B28A
2AABF
2AAAA
38EA8
3FFF3
3AEAA
0BFF3
2BC2C
33FFF
3FC3E
3CFF3
3FFFF
20A3F
208FF
3F3FF
2FFFB
2F8E8
2F0EB
0CFBF
0E3AE
2A86A
3FFFA
0AABA
3FFB8
0AAAA
3FFEE
26AAB
3FFFC
0AEAA
3EFCA
3A9BA
38CB8
30F8A
2AAAA
2AAAA
3AABC
2AAAA
282B8
3CCFF
