3EAAA
3FBAE
2CB2A
2FFEE
1AEAA
2CF38
2AEAA
2AEAA
33FEF
3FFFA
3FAEA
3FFAA
2A2A8
2AA8B
0EFA2
23FAF
169A8
23CAF
3FFEF
2FBEF
2FBAE
3FBEF
2BAAB
23BEF
3F349
3FB8D
3F8AD
1BEAF
2BFBF
2AAAA
2FBE3
2FBAF
2A798
2EAAB
2A28A
2AAAB
2AE3F
2AAAA
2AA2A
0FAEF
2B6FF
2AABF
3CFEB
3EAAA
0AAAA
3FF8F
2BFBE
2AEBE
0CCBA
2ACBE
29A8A
2AA42
3BF4A
33EBF
2AFBF
3CFFF
3F3BB
2C3F2
3FFFF
2CBBE
3EABA
32ABA
3AA8A
299AB
3EEB3
32EC3
2F22A
2FFAA
3FEB3
2AF3B
33FF3
2AEBA
3BAE3
3B9AA
2AD8B
0FBEB
3FFFA
0F8EA
2BECC
2BEA8
2AAAA
3FEBE
2ADBA
2ADBA
2ACAF
2AA0F
2AAAF
3AAB2
39A4E
3FC3F
38CEB
3BE2B
2AA98
2BFFF
2FBFE
2F2FF
23AAB
3FBFF
2A6AF
2AAAB
28ACB
3E2FC
3AAEB
3AA93
32FC0
0AAB3
3FFFF
3A9B8
2BA82
2B832
2AAA2
3FFC3
2997A
3A2BA
16FA2
2AE8A
28AFE
2FFF8
19CBA
2AF3B
3BBDB
2AECB
2A83B
3BAEB
3FAA6
3BAE6
1BE89
2A2BE
2AFB2
38EEF
3BFFE
38EB9
3EBEF
0EA9C
3EBEF
3FCFF
3AFFC
2A338
2AFBE
2A3AA
3FFFF
33E80
33F30
3FFFF
08EBA
2A2AA
3FFFC
3B8EF
2A6EF
0FBEB
2BAFC
38CFF
3AAAE
38BE3
3EBEF
3AAAB
2FCA2
2FFCE
2FF2A
2AAA2
2F23F
3F3FF
0EABA
3EABF
29AB3
1AAAB
2B88F
2FFFF
30AAA
33EB2
3FBFF
3FFFF
2AA3F
3F2BF
2AEBE
3FCFF
25E7A
3FFBF
1BAAE
1BAAB
2A0AE
29AAA
3EF3F
2FA31
2F2FA
2BAB2
0A2AA
2AA8F
2AAAF
2FBEF
3EBFF
3F3EF
2CBEA
2CB3A
2E3CB
3FFFF
0F0A8
3FEAA
33FCF
3AEBB
3AE2A
2AAAB
3FFFF
2AEAF
2AAAF
2AA2C
2B62F
0A2FF
2A2FF
2AFFF
2BABD
23EBE
33FFF
3ABAA
3EBAA
3AA8F
00388
3FFBC
2697A
2FFFB
2FFFB
2FBFC
2AA7A
3BEFC
2EBBF
3FFFF
2BFFF
2F0FF
3FAF0
23AFF
2BAF2
2FEFE
2BEBA
282A9
3E3A3
3EFCB
3FF2F
3FFEB
33FFA
2BBAA
0B1B4
3FEFB
3FFFF
2AFEF
02FFF
3AFCB
2F3BB
298BE
29278
3AEFB
2AAB3
29A88
289AE
3FEFF
3ADBE
2BF2A
2BFA2
2B3CE
3FC3E
3CFFF
2F3FF
226BC
2FBFF
3FFFF
2FFF3
2FBFF
2FBE3
0EFBF
0EF4E
2AB6A
3FFF3
0A2BF
0AEB8
3EFAB
3EFCF
0AA3F
0BFFF
2AA2A
3FFFF
32A8A
3E08A
3EFBA
2B2AA
2AAB2
3FABE
2AAAA
33FB3
3FFFF
