2AEBE
23FFF
2C3FF
2A9B9
2BAF0
2AE3C
3FFFE
3EF3F
2A3EF
23EB3
20CEB
1B92B
3AB8F
3AFA3
3A2EB
3FBFF
2A97A
0AA48
2F3FF
29EA9
3EFBE
23A2B
23ADB
3F3EF
3FFB2
3FFFF
2BA2B
3F2F3
2A9AA
3FFFF
3F2CC
3FEC2
3FEEF
0CFAC
22EAA
0CCAA
39A7A
3F33F
33F3F
3CFFB
3E82B
3EBEB
2BEFB
3AEA8
2A9AA
20CAA
2AAA6
2FFE3
2CBCF
29262
0ADAF
0F8FA
23AFA
22ABA
3CF32
32F3E
2AEBA
3FFEF
0F8E2
2AAEA
3FFFF
3EFBE
3EEB2
3CFFF
2AAAE
2A8CE
1AA8E
1BAFF
18AFF
22FEB
3FFFF
2BAEB
2AABA
2BAFC
2B8FF
2AE4A
22EAA
3FFFF
3EFEB
3CFEA
3EFEA
2FE2E
2AA92
22AAE
3FAA6
3B0FF
3AA43
2AAAA
0AA3F
3FFFF
3AB2F
3ECB2
3AA96
2BAEA
2AAAA
3FFFF
33FFA
2B3E8
3FFF3
2AABA
2AA3A
2A2FB
3FFBB
3FFBF
3FA2B
2AEAA
2BEEA
2AEAA
388CF
3AABE
2A9BE
0FFF2
2FBCF
286DB
2AE3A
2BFFB
24ACB
3FF3C
09279
3EEBE
3F2BA
3FC3B
2A9A7
2AAAA
3A8CB
3ABEB
26AA3
38BEB
3AAAB
26ABA
3FFFF
3BA3A
3AAA6
3FFFF
3A8BB
2AEBA
0FFFF
2AEAF
2A8BF
0AAAC
38A9C
3CFFF
3AADA
3A6DB
3FFEA
0ACAA
2928A
2AAAA
22EEC
3FFCF
22AA6
0F3EB
2EAAA
33AAA
2A6AA
33BEF
2AAAA
28A28
3FCEB
2AEAA
3EFFF
3CFFF
23EBA
3FFFF
169AB
3FFFB
2BAAA
3FFFF
1BACA
1BA3F
1AAB2
2FFF2
1BAFF
1A9B0
3F2EB
3FFCF
23AEB
3F0EF
3FEAF
0FE3E
