3FBAC
2EFBA
3B6DE
2F1FB
3FFFA
1FEFE
00EEC
37BEF
3EA2E
0AF3E
302BB
2FF8F
3E2EF
00FF2
0220E
3222C
2BB80
0AAA0
0AA02
2C080
00E28
1CDEB
2AEFF
2FEBB
22BEB
359F9
3FFB7
0027E
3FCDF
1CF77
2B6EE
2E9F7
3FEFE
2FEFF
00EDD
2FCAB
1FF3F
2FAAF
2EBFB
3AAFA
2FFFB
00AAE
2FFAF
2FF77
2F6DF
2FDFB
3BAFA
1FFFA
00A9E
3ABFA
2BAEE
3EFBE
3CB3E
28ABF
3A8C2
00FFF
3AB8E
2EB7A
3BBDE
0FEFA
3FFBF
2E2EE
00FEE
2FEA3
1FF7B
2FAEF
2FAFB
3AAFA
2FF3B
009AE
3B3FE
2FBAF
28CFE
32BFA
3FA8F
398FF
00FEC
36BFB
38EEE
3EFBB
3BFAF
2AAAF
3ABA3
00FFB
3ABEC
1F38A
2EBEE
3E63E
0FFBF
0D2EF
00EEC
2FEAB
2FF7B
2FA2F
2EAFB
3AAFA
2FFF8
00AAE
3FF9E
2F37B
27AED
2EAF8
3FEB0
23DFA
0022D
38EEE
3AE0A
3E8FF
33E8F
2FFFC
3FFEE
00FEE
00000
20000
02002
00200
08008
00000
00300
33BAE
0F377
3B4DE
2FDF8
3FFBF
1EEFE
00EDE
3FFAF
2FF77
2B6EE
2F9FB
3BEFA
1EEF2
0022E
1FD9B
3BFB3
1B1BC
1FCFB
3A5F5
0FFB7
0064D
3FFDE
1FFBB
17AFD
2D6F6
33A7F
3EEFF
00EED
2BAEF
3BCFF
2FEBF
33F3B
2AAB2
3EF8B
00BBA
3FFAE
3FBBB
07AED
3FEFA
3FF7F
2ADFE
00FFF
3ABBC
3E2F2
3DFCB
0BE8F
2FFFB
3D3DE
00FFB
38BB2
3EAEE
3EFEB
3BEAE
2FFAF
29BEE
00FEB
32BBD
3EBEE
36FE9
0BECA
3FFAF
2A9EE
00FEB
0FEEC
2FF77
2BAFE
2FDFB
3BAFA
2FEFB
00EAE
3ABAC
3EA7A
3ABE0
3EEFB
2FF3F
1EEEE
00FEA
3BBEF
2F3BA
2EBEF
3EAF3
3FFFF
2ECEF
00FEE
2B2FB
2AE8E
3EFBB
3ABAF
22ACC
3FFA3
00E2B
2FEFB
3BEFF
3CFBF
0FFAF
2AAEA
33FFB
00BBB
3FFEE
1FBBB
27AFD
3DAF6
3FEBF
02DFF
00FEE
3FFAE
3FB77
274DD
2FDF6
3FF7F
12DFE
00DEE
