2EFEB
3AACE
2FFBA
2B29E
3FA7A
3BEAA
268BF
2BB64
2A4AE
25BCB
0ABAF
2AFE3
30FFF
33F3B
2FE8C
1BA8A
0FAE6
02AEB
0EA79
3E843
3D483
2EEFE
1AAB3
2A8BA
1AEA9
3BDAA
0E7CA
3BFFF
3F3E3
28F9E
3FAEF
2E7FF
2FE3F
2CF0E
3CFBF
03BFE
28FFB
2BA9B
3DAEA
1AABD
2A7AB
2B6BB
23A9E
38ABB
3B8DF
3EAFA
2B6A0
3BB2F
286AB
1682A
3EB36
3A6AA
2AAEB
00FEB
3AAAB
3A1EB
0BA6A
3A96E
36662
3AAEA
0EDEB
3CE6A
06AA8
3AA9A
3FD22
3E8CF
2BB8B
3EB87
3FA2A
2EAF8
3BAEA
03BEA
3EF9A
27ABF
3A2AE
0F090
3AE5A
22A2B
1ABBA
2EA6B
2BEAB
2EA5A
1AF2A
3AB99
33BAB
2FB21
2BFBE
2FB88
2EFEE
03FF0
2BA7B
33AFB
1BABF
279AB
29AE6
25B2B
32BB3
3FEBB
339EA
2AA8F
3EFAB
26B8A
3F237
33BBA
0EB2F
2AFEB
0EA82
02CF3
2AEEE
22E8A
23EEA
3FA8E
2FFAF
3EEBA
3AB82
3C8FE
0BE8E
2AABF
3BDFE
0BA68
3AAEE
3188B
