2AFAB
3AAFF
2ACAA
2B2BA
2FA7E
30C2E
3BAAB
02AAB
2AF8E
3AAEA
0AAEA
22FA3
30BFF
22F3B
2EACC
08C8A
3F3E8
03CF2
2EEBB
02FBC
36A8B
3BBFB
2AEFF
2A8AA
1AFCA
2AFBA
09B9A
33F3A
3E6AE
2CF9A
3FE2F
2E3EF
2EACF
22F2E
0A3BF
00AB2
3A9A7
13ABA
3FA23
242FE
2FBFE
2A3BB
2B8AE
0CBB6
2FBFF
3E2BE
3DB3A
28E33
3AA9B
2AAA2
2BBB6
3AA9D
29AAE
02FEA
3AABB
2AA6B
3A2CB
3A8AE
2AAFB
3EAEB
2EBEA
3BE9A
2BBBA
2EAEE
2AAAA
2AAAF
2EBAB
28E8E
3FBF3
1F4C2
3EAF3
03FEA
2EBAA
0DEAF
2BABA
2A282
30DC2
3AEAF
2AAFA
1AAAB
34AAB
2FEAE
2AABA
2A28A
237BF
3EFAF
33EBE
23FC3
0CFBB
02EEF
0FBEB
2FEAB
2FFC6
228EF
1AE9A
2AEAD
3AB4B
3FFAB
3EAEA
2FEEB
2AFAF
2BB3A
0FEAA
3BAE6
03B2F
3AEEA
3AAAD
02BAF
2B2EA
222AA
2EEFD
3EAF9
3BFEA
3EABA
0AEEA
3A3F9
0FEC8
2EABA
1ACF2
3BAF2
3EA2E
2FAEB
