3BBBF
20FED
32EB3
2FBFB
32EAE
2AEAF
2F89B
3F6FD
3BCAE
2F7BA
3AAA2
17FF6
2E75B
31DBF
3BBFA
1AEEF
3FBAF
038BA
2FEEE
38BBB
2EEB3
3EF2E
3FFAA
3B93A
2D7F7
2BFAC
0808A
20280
28222
2BE30
2C6EA
36B9E
2BC1B
3EFEE
1B8AA
03E3B
3FACA
3FFFA
36E8D
0793C
3FFE7
36EAE
3BAAB
3E26A
39FEB
2F2EA
3DBE6
2AF8A
228AB
02800
0AAAA
3E03A
0B67B
03BED
22DBA
26EAF
3E7EA
3EBFA
2ECEF
3A6EB
3EAEE
1FBAB
2FEB3
37BE6
2EFDB
33DFB
26BFF
29B7A
2AAB6
1FCEB
3BA9B
01CDB
3BEEB
3DB2B
