2AFEA
2E3AE
2BECA
2E2AB
2AEEA
3FAAA
22A8A
30AAB
3AA8B
2A2AC
333BE
22FB8
3BEFA
02AEF
0BAE2
2AEEB
2AAE8
02EEF
2E2AC
2BBAA
3BA6F
2BABE
2EBBB
3AEA8
2AE7B
2EAFA
3AAE2
2BEAA
3FAA3
2AAEB
3AAAA
3AFA9
22FEA
3ABAE
3A88A
02AEA
2AAAA
03AAA
2AEEB
2EFAB
2EE8E
2FAEA
3EAEB
2EAA8
3BAAA
3AAA8
0AE88
2CEAA
2EBBE
27AFE
2ABAC
3EEE8
2BA2E
02EC3
3FAEA
3AFCE
3BBAE
3A8FA
2BAAB
22AB3
20AAE
22AF2
2A2BB
28EBE
3AEBA
32AAB
2CA0C
2E2BA
2FE2A
2AABB
2BA2B
03AB2
0AAAB
32AAE
32BBE
3ABF6
3EBFC
28FBC
2EAAE
2E8BA
2AA62
3ABEB
0BACB
3FFA3
2FAAE
0EE8A
3AEAE
0AA6A
3BAAD
02FA2
2FB5F
2ECFF
02A2C
2EEE2
33AEE
2AEBB
2ACBB
2BEBE
22ABF
2EABE
2ABAE
2ABEE
3FEAE
2ABAA
2FCB8
2CA8B
0ECA3
00A3E
32AAE
3BE88
3BBEF
2FABA
3EB2E
2ABAA
2CE8F
0EAFA
22EEA
3B8AB
2FAEB
2FAEB
0AAAA
2A3AA
32F8A
3AFAE
3AFAA
02AEA
3AADA
3FBBE
3BEEF
2CB3A
2EBFA
3AB6A
2CC77
2A2B2
2EABE
22BFA
0F2EB
2D8EF
3A22B
3FEEA
3FFFA
388AE
3A2AA
03BE3
2AFFE
2EBFE
3CCEA
3FFFB
3BA0E
3FAEF
0AFBF
23BB8
3E8BF
220CC
3FBFE
3AFFE
03EFB
3FBE8
3FFFE
2FFFF
38CE2
03FBF
3BECB
328BE
1FFF8
3EB2F
0AEAC
3B0EB
3FBFB
2B3EA
3FB8C
0822A
3AFEE
2DEFE
2F3EB
2ABFA
3BBFA
2A3D3
3EADC
03BE7
2E8BA
3F832
38EEF
2ABBE
0FF3A
3AB8E
3FFAB
3EBAA
2E36E
38FBA
2FAFB
2FAEA
22AA2
0EEAA
32FBE
3BB8E
32170
03AEF
3FFEA
2222E
0FB3F
3E8AA
2BAE8
2EBEA
2F832
0A8E8
32A33
2A8EE
32FAE
2AAA3
2EEEF
2FAFB
2AEFA
2BC2B
0B8AA
038BE
0FBEB
22FFE
3CFAB
0EECE
3BEEF
2A8B8
2BBEA
23EAE
02FFF
3AEFA
3AAEE
2ABFE
2FEEC
3EABA
2FBC8
2BAFB
2F2FF
036BD
2AAAA
1B2BE
2266B
28AAA
2EFA3
2ABAA
28AAE
3EAAB
2AA22
3BAAF
2BAAA
2BEBA
2BAAA
28BEF
0AA8B
3AEAA
2AB2B
02E2A
3A8AA
3BAAA
3BBEE
2EE8A
2EBAE
2ABFA
2A2EB
0ABBB
2EEEA
28B2A
20AEB
3FEEB
2EAAB
2EEAA
32F3A
0A2BE
3AEAE
02AEB
38AAA
3B8BE
3ABAC
2A2FA
2EBAA
2A3AF
2EABE
22EF8
2AEAE
2EBBB
2E8FA
3F8AB
2AEA6
2BEE3
22EAA
3AA2A
3FFBB
0248A
2AA5B
2ABAF
2AAAA
2AEEA
3A8EA
2AFAB
2AABA
2AEAE
28AB8
2FA3E
2AAAA
2A3BE
2AEB8
3ABAB
2FA87
3EAAA
2FEA3
02BA2
2A2B2
33A8A
089AF
2FAB6
2EF8F
0A86A
3EBA3
3FB4A
2EBA2
3BB8B
2E2EA
2FEEA
2808A
0AAFD
22F2F
30BAF
3ABFA
00AEA
0AABA
28EAA
28ABA
2AEA8
38AAE
0FAEB
3AAFA
283AF
2AEEA
3E8BA
288EB
3E3AA
2AFAA
2BFA2
2AAAF
2EECE
2AEAE
02AAA
28AEA
2FBF3
3FEAA
32BFB
2BCEA
3EABF
2FEAE
2A8AA
3A8BE
2AAFA
38BBF
2E3BE
2ECCB
2CEEE
2E2FC
2BAC8
2BABB
03ABF
2EFBF
2AEEB
2A2AA
23CAE
2ACBB
2A1BA
2BAAF
3F2AF
2A7EA
2BEAE
2ABBA
22ABA
2BA3E
2AAA8
2FAAB
2EBEE
2EFCB
028AA
2BAEA
2883B
2EFAA
3ABBB
28AAA
238FF
3FAA8
2ABAB
3A2BA
2AAEA
3ABBC
2E3AE
2E2CA
2EEAE
2AEAC
2BAAA
282FE
02EAA
2FABA
3FA3B
2ABAB
3AAB2
2EF3A
2AB7A
3BF2A
3EFAA
2EFAE
0BBAA
23AFA
3BAAA
2EAA8
2AEAE
2AECF
3ABAE
3AF3A
00AAA
3ABCC
3EFCE
0FBBF
3FBFE
382AA
2AABE
3EF3F
2E8F8
2B233
2AFFE
3FEB6
302EB
3CF8F
3EF3F
0EBFA
0BA8B
02EA3
038BF
2AFCB
2E86A
2FCCB
2EFEF
2BEFE
3FAE8
3A3FB
33C23
3FAE2
32A8F
0BFBF
29C2E
2BBFB
0CBFE
02CFC
2EFEB
0A3EA
03FCF
2EBAA
2A6C6
28ABA
0AEAE
22EAA
2AAAA
2AEFA
2DAAB
2AEAE
26ABF
0AAAA
3FBBA
2FBBA
23ABB
2D6AB
1CEFA
2EDBA
02ABA
2FBBA
2ABFB
2ACBA
2AEEA
1B2AA
2BABA
2BBA4
2AAAF
3AFFB
2AAAC
3ABAE
2AB3E
2FF3E
28AB2
2EAAC
2FAFF
2EEFA
02ABE
2AFEA
2ABAA
33CAB
2CEA3
28EEA
3FAAA
2A988
38AAB
3BBAF
3AEAA
3B73E
2AFBA
2BFFA
00AEF
28BEE
22EEF
2BFE8
03ECF
0AE3F
12FBA
2AAA3
2BC9E
2EFAF
3AF9A
2AAAC
3EA9F
2A7EE
3B208
0FA8A
2AABA
2AAA6
2EBAF
3A6AA
3BF2E
2FF0B
007A2
03B3F
30AFB
3F2FE
0FFEC
3BEFF
3BEFA
2BBBB
08F8F
038FF
2EE3C
2EFEC
22BEC
00EEC
3AAFA
3FF32
2EBEF
3FFCA
02BFF
2CBEE
2EBEF
2EEA2
22F6B
3B8EA
3FAAE
2BFB8
2AAFF
3BEBB
2ABEC
38FBE
3ACB2
3EB3C
3F8EF
2BEBF
2FEFF
2F8EF
03E3F
28AFC
3B2A2
2EEEB
2FBAF
3EEBE
3FACF
3CFCB
2EBEA
3FB8E
3AF2A
3AEF3
2EFEA
2EBFF
3A8FE
32BFF
3AAEC
3CAFE
030CB
2AAF3
2AFEF
2A128
3EBFE
3EBBF
2AFBF
2E880
3AEEE
3C6B2
2FE35
0A1B2
1BBFF
29CEA
3E2AB
2FACE
373AC
2FFAB
02BEB
