2EFEB
398BD
3AF4B
23EAC
3F9BB
3AEA2
1AABB
2BAEB
2ABAE
29BEB
2BBBC
24FE3
30FFF
28FF8
26ED8
2B9AB
3DCEA
0172B
2AEB9
38EBB
318A3
2EB3B
2AEBF
2AAA9
2AEA2
38CAA
0A7E0
3FF3F
3FC1F
3BCBA
3FC3F
2E3CF
2BEBF
2BCEC
2EFBF
03BFA
2AFF8
1BAA8
3FAA3
1A9AE
2AF8A
2BEEB
20AAE
3AAFB
3BBEF
3FFBA
3E4F8
2BAAE
2ABAF
2AAAA
3ABB8
3A95A
2AAEA
02FEA
3EAAF
38BEB
0BDAA
0E2A3
38AAF
2AAFF
2EEE6
3FEBA
09AAA
2AAEE
2BE2A
3EAEF
23B7B
3E8BF
3EEE9
2C7EA
3FEE3
03FEA
3FBA9
342EE
0AAB6
2BA9A
2AEAA
3A7AE
17AB8
1EEAA
23AB7
2EA57
0ABE6
0AB89
3FAAB
0CB2E
2BFBE
0FBAE
1EFB2
032E3
2B237
3FA37
1BABB
20EAB
1AEEA
26E2A
32BB3
3FF8B
30AE8
2A2EF
3AF2F
29BBB
3E2BB
3B2B8
3A8AB
2AEEA
2EBAA
02FFF
0AFC2
3628F
33EFC
3F4FE
2CF8E
3EEFA
2ABBA
3EB3A
3FCBF
0C2B9
2BEFD
2BACD
0662E
3B62B
