3EBBB
1BEAA
33DBA
3AAAE
38EA9
3BEB6
2E892
39AEA
3F9DA
2C8A7
2ACB8
3FB2F
2BB2A
2EFE4
33E3E
3CCBB
03BF3
02FFC
2EB3C
2ABAF
3AEE2
3FFEE
3EABA
0E2A8
3A8FE
2EC8C
2EFF3
3AFAB
2AAEF
2AABA
3FCEA
383AC
26FAB
3ABA8
3BA0E
02FFF
3EBFA
2AEBA
2A3AA
3A2EC
2BFA9
16AEA
0AB2F
2EB7B
2EABB
3AE0B
2AC9B
0FB2A
1F3EE
2FD2E
3EAA6
3AEA3
2E3BA
02AAA
28BEA
3EAAA
2BBAA
2AB7A
2AAE3
2AAAF
2ABAA
2BA2A
2B8BB
32EAB
1AEA3
06BAA
0FFAA
3EFED
0CFFF
2B2A7
2EBCE
03EFB
2EA29
24EB3
2E3CE
23AE2
2AAFF
3EAAA
2EABA
2BA6A
3EAAA
0E22B
2AFE9
3FB2F
2FF66
22FEE
3AABE
3729B
2BBB0
02EBA
29EA9
2A19B
2ABEE
23ABA
20EEA
3A1AF
2BBAA
3B8EF
26ABA
33EAA
2AABB
2FEFB
2AFBA
2ABBE
22BAE
3BBFA
2F8F2
03FFF
3B2AB
2F8FF
2FFB3
30A3F
2EAC0
3B93A
3AABA
298AA
2EAA8
29AF2
2BBAA
2ADEE
22A67
2BAF9
23AAB
1AE2E
2AEDB
02AA2
2AAA8
2EAAB
2ABE2
2AABA
3C9EF
2EB17
3EFEC
3A80C
3E93E
2FAEF
28FAA
2FFAC
2EA8B
22AEA
0DABB
32ECB
38FEE
029AE
3CE08
37EEF
0B3EE
233EA
