3AFEF
2AFAE
03A3A
2282B
0A20A
3BAEE
0BAAF
33287
3ABCB
2EEAF
3F3FE
2EF3B
2BFFA
3EAF3
388EE
0BFA3
2AAFB
03CEF
2EEBA
33BAE
3BB6F
2BABE
2EBB8
08EB8
2AA6B
2DBFA
3EA2A
2BAAA
3FEB3
2BE9A
3AABA
36F69
2AFEA
3EFDE
0AABA
02AAA
2AAAA
32AAA
2EEEA
2E3AA
26E82
2AAAE
3EBEC
2EBAA
3FBE8
3ABAA
3AD06
1DEBA
2FB03
2AAFE
3AEFE
2E2B8
3A9AE
02EEB
3ECFF
3FBF2
3CEFC
3FFCB
3BBFB
0FCAF
28F83
2AECF
3ABBF
2BCBE
3CF2E
2CCBF
2AAFF
3FCCF
2FEF8
00AEF
03CEF
03EFE
2AAA8
3AA6E
3ABB0
2AAFA
3EFFF
2AFBF
2EEAE
2EBB6
2BAAA
3AAEB
2BEA2
3FEAA
2BA2E
0FEAC
3EAEE
2AAAA
3AEAE
02EAA
2BB6B
2EFFF
2EA22
3AEEE
33EE8
3EEB7
2A2B0
08CBF
2AEFF
2EE3E
2ABBE
2ABAE
3EEAE
02BAA
2F27A
2BAEB
2CEBB
00ABC
2EBA7
2BEEC
3A6AF
2AAAA
0EBAF
2AEAA
2CAB0
32ACA
2EF2A
3BBB2
2ABAB
2BE8A
3BAA2
2A7AF
1EE2A
3BFAA
32BAB
03A8A
3B9EA
3BB3E
3B3EC
3FA3B
2CBCF
3ABAA
13B8B
299BA
2EABE
2ABFA
3FA8B
0EEDF
3AAFF
2CAEA
3EFFA
3AEAC
3AAFA
03AEF
3AFFF
3FFFA
22EBE
333CB
03FCA
33CAF
32FBF
2B83B
338BF
2CFF2
3FBFE
223EE
2EFFF
3820F
3FFFC
0EAEF
3FAA2
03FFE
3BFFF
3AACA
2FFFB
3EB2F
2AEAE
3BBEB
3FBF6
37BCA
3F8AE
3AEEE
3AFEF
2AEBF
2EBFB
2ACFA
3BBF2
22EAF
3EAEC
03BEB
2AD3A
33AFE
2BAEF
2ABB2
2CBAE
3EAAE
0F062
3EB6A
2FBAE
3BFAA
2FABB
2FEAA
2AAAA
2CEEA
3AEBE
3ABAA
3AABA
039EB
0FBE8
3EBAA
0FAAB
3ECAA
3BECA
2E32A
0EF3A
2E0EA
3FE8F
2EFFE
00FBA
3EAAE
2EEEB
28BFB
22AFA
2AEBB
0BBAE
0323C
2EBAA
3AEFF
3FBAA
3AFEB
0AFAB
3A3BE
0B09E
0BEAE
3AFFF
2CFBD
2AAAC
292FF
2EEE0
3EABB
2EBEE
2BAB3
2EAB2
03AFE
2ABAF
1AD82
22AAF
2AAAA
2E2A3
3EAAA
2AABB
3EAE7
2AAA2
3BA2F
2CBAA
2BFBA
2BBAA
2ABCF
3FAAB
38EAA
29BA3
02EEB
3AABA
3BEA2
3ABEE
2FE8E
2EBAE
2BBF2
2AAFA
2A7AB
2E3AA
3B2E8
2F2EB
2BEAA
3A8BB
2AEAA
3ABBA
2AFA2
3AFB8
02A8F
2AAAA
2A3FE
32AAA
2AEEA
2BAAB
22E2F
2AAB0
2EEBB
2AECF
2EFBF
2A4FA
33BBE
20CAB
2BAAF
2EAC8
3AEFB
2FBAF
02CBE
2AABB
2EFFC
0AAAB
222EA
32A3B
20EE8
2AAB2
2AA3F
2AAB2
2C2FF
2AB86
2BFB8
2BDBE
2ABAF
2FABB
2EBAA
2FF8B
00EAE
22EAE
3FE8A
2AABF
2BAFF
2EF8B
2AAAA
3BBE3
3EFBA
2EBEA
3BC2B
2EAEA
33F02
1BFB2
0AEFE
2AEBF
3F3EF
0BFBB
00B2A
3A8AA
2AE2A
33E3A
2AFAA
38AEE
3FA2B
3AAFB
2ABAB
2ACEA
32AB3
2ABFA
3C3A2
233AA
2BFAC
2ABAF
2AEF2
28FAE
0212A
2A8EA
2BBFA
3FE8B
22FAA
0BEE8
2EBBF
0CFAF
3E88A
3A2BB
3E3BE
38FBC
3FE8E
2E8EB
2FCAF
28AFE
0AACB
2B88C
03EFC
2EFBF
2AEDB
2AEBE
2BCAF
26ABB
2AABA
2AAAE
322EF
0AAEA
2BABA
2EA8A
2BBBA
2BE38
2AAAB
2F8AB
2FBAE
1EFAB
02BAA
3332E
2BEAF
0FFCE
2FABA
28B3A
3A3FA
3B28A
3BBEB
22E8B
2AA2B
3ABEE
22AE8
322EE
3ABEE
3AE8A
2AEBA
3A8FE
02AFA
2FABA
30A3B
38B2A
3A2FF
0ABFE
22FFB
3BFEA
3FE8E
2BEAE
2EAAA
2B8EA
3AAA3
2CCBB
28ABE
2AAEE
2EABE
28ABA
02AAA
3DB8F
2AEEF
33A8A
2AEEC
0BAAB
2CABA
2A2B2
2E2FF
2ACEF
2AEBF
20BB6
3FACA
22A8A
2AA8A
2FBAA
23E2C
2CEBB
02ABF
3FFEF
2839E
2BFFA
0EFAF
3A1EF
3BAEA
2BFBB
3FFAB
38BEB
02AAF
38BCC
2AFFF
2FBFA
3EBFE
3AFFC
22CCB
2AAEA
03BCB
2A8AA
2AAEA
1E839
0AEE2
2BEAA
2AA96
26EBF
2EAFF
2ACCE
068BF
2ABBA
3FFBB
2FF8A
2FAAF
2EA67
1ADFA
2EDAE
02AAC
3AACB
2EFFA
2ACCA
3AFEA
2AEEA
3FFBA
28FBB
2AA83
3BBFB
2A2BF
2BBAE
0AF30
3CFB0
28A3F
2F2AF
2EAF8
3F3A8
00EFC
2AAE3
22CA2
3BE8B
22FA3
38EEA
3F6A2
28AA3
388AB
3A0AC
3AE8B
08B3E
2AF3A
2FF8A
3BBEF
2BBEC
2AEE3
1A3F3
03CCF
2EC3F
2BE76
2AABF
2B8AC
2C3A3
28B9A
2AAE8
32AEA
2AB2E
3BAAB
2F9EA
2B2BA
2ABAA
29BAE
2AAAA
3FFAE
28FAB
02B6A
0FBB3
3EEFB
2CAEE
0FCFC
3BCF3
36EBB
2AABA
26E9F
2ABFF
22E3E
20B3E
293AF
3EE2E
3AAE6
2FCB8
2CBEF
3FF3B
027F3
28BEE
3EBA3
2CEA2
2BF8F
0BFEA
3F2FF
22BAB
2EA23
3B8BB
0CBCA
3AFBE
22F3E
0EFCF
3BBAF
2BEF2
28AEB
2B0EE
03CFE
238FE
3AAA8
2EEEA
2FBAF
3DEBE
2FA8F
3EFEB
0ABEA
3FABA
3AFED
3ACCF
22E32
2FBFF
3FEFE
32BFE
2AAEF
3EECE
03FEB
2AA3B
2AFEF
3AA3C
3D0CE
2CBBF
2AFB8
2EABE
2DEFE
0E6EE
2FECD
2B9BA
2BABB
2BEE0
2AAAB
2F22A
3BBAE
1FFAB
02BE8
