2EAEC
382BA
2ABAF
3EAF9
3A8BE
2BFCB
3AEF8
2DABF
0AEAA
3CFEA
2B0E9
3AFFB
2AEE7
2FF1A
0BFF2
2FEC6
2BFB9
02BBB
3FAFC
042FF
3A8FA
3BAFA
3BCBE
2EB8E
3EE20
2AAAE
0BFFA
3BEFF
398AB
2E6AF
3FEAF
3AA28
0AAE2
3FB8C
1AEEB
02AEA
13FA8
383E7
2FCEE
2BBA3
3ACEE
3E78B
0EE3C
3AFA7
0EAAE
38FFF
32FAA
2FB3B
3FDBE
32AE7
0FBE2
33B88
1E7EB
03BAA
23AF8
38FAB
2BEEF
2EAFE
3BABF
3AA8A
2AAE0
2AEAA
3AAAA
3FEBE
32CFF
3AAFB
2BABC
3FE2F
3ABEF
2BBFC
1BFAA
026EE
32EA8
2BFAB
3ACBE
2B6AE
3FCB2
3BEFE
0EF28
2F9BB
3BEFA
3FFFE
3E0FE
3AABA
37ABB
3AADE
2E9D2
33E8B
3EBFA
02FAB
2E80B
38AFA
2ABAA
3AAAA
0EAEB
2AABA
3AAAB
2A8AA
0E2AA
28AAA
2E8AA
2BAEA
2AAAA
22A2B
0EAA2
2EA88
0AAA2
028AA
22FAB
2A3AA
2ABAA
2AAAA
23AAE
20ABA
3EAA3
2AAAA
0A0AA
28A2A
3EEAA
2AA2A
2AAAA
2EA2F
0AAA2
2AAB8
2AAAA
028AA
2B2AB
3BAAA
2ABAA
2AEA2
0ABAE
2AA8E
3AA2C
2ABAA
0AEAA
2BA2A
22EAA
2AAEA
2AAAA
2AA28
0EAA2
22A8A
2AAAA
02AAA
228AB
0B3AA
2ABAA
2AAAE
