2AF9B
3AAFF
2AFAA
23ABB
2FABE
30C0E
3B6BB
01AAB
22FAE
3ABCA
0AAE2
22FA3
30FFF
2FFFB
2EACC
2AE86
3FBFA
0338A
2EEBB
2AFBF
36A0B
3BBFE
2AEFB
2AAAA
1AFEA
2AFBA
2589B
33F0A
3A6AE
3FF5A
3FE2F
0E3EF
2E6CF
22F8E
0238F
00ABA
3A987
28ABA
3FAA3
26AFC
2F7FE
2B3BB
2BCAE
3A83B
2F8FF
3EAFE
3EBF8
2FE3F
3AA9B
2AADE
2BABA
3AAAD
29AAE
02FEA
3AABF
2AA6B
3B2CB
3AAAE
22AF3
3DAEB
2EBEA
3BEAA
2BBBA
2EAEE
26AA6
2AAAF
2EB6B
20E4E
3FBF8
1F4C2
3EAF3
03FEA
2EBAB
0DEAF
28ABA
2AA8A
3ADEA
3ACAF
2AAFA
2AAAB
37AAB
2FA9E
2AA3A
22EFA
0BBB2
3E31F
33C3E
2F38F
2CEBB
02EEF
3EB0B
2FEDB
2BFFA
2B82F
1A2A8
3AEAD
3AB63
3FFAB
3CAEA
2FE3B
2AFAF
2ABF2
23EAB
389E6
2FB2C
3AEEA
3AAAD
02BAF
2B9CA
2D1AA
2EEE1
3EAE9
03FEA
3E2B0
09EE8
3A3F9
3FEC8
2E27A
29CF2
0BAFA
3EA2E
2FA1B
