2EF2A
3AAEC
2AFDA
2B1B2
2FA7A
3EEAB
3BA8F
0BFAE
3A1BE
2AB6D
3ABDD
3AFAF
3EFFF
2BFBB
3C2BE
0B2BE
2E2E2
03C81
28FFE
2ECFF
3E2AB
26BED
22CB8
3E8BA
18EE3
1AB3F
28BDB
3FBEF
3EDDB
20998
3FADF
3E3EF
2BA8F
0CEF1
28BFF
034FE
2AF2B
18ABF
3FB2A
2A13E
2DDEE
2FABB
2F8AE
2AA3A
3ABAF
33BAF
3FA6A
19AB7
1A79E
1969E
3EBBE
3926E
2AA28
02FAA
1AA8F
29E1B
0ABFA
3EAAE
2BA7A
326FC
2CAEA
2FE99
06EEA
26ADD
2DEAA
3BACB
3E5AB
2AF89
0DBB8
2FBA2
3EAFB
03BE9
0BBAA
2E28F
2A6BA
1BABA
3ADA2
1A1BF
2A876
3A6AA
3B2BB
21EA9
2AFAB
1AABE
3CBE2
3D32A
3FBB6
2BB8E
0FF3A
03CFF
32AE3
3CAEA
24BBA
0BACF
18FEA
07D2D
3AB59
3FCA7
3FA2A
1AEBB
3F22A
2ABAB
2FA8B
1EFB6
2E8CE
2CEE8
2FF8E
03B62
3ABEE
221AE
28FF1
3CAE6
2B3FE
3E2BA
2AFAA
39AF9
2FCAB
2EAAA
1BAF2
039E8
3CAEE
23EB9
