38F4F
32FDB
39BB7
00FAF
3EB8D
13BEA
2CD6A
00AAF
2EAAC
0AA6E
0BAEE
00AFA
2BFE7
3BF97
396EF
00AEA
3BFA7
39FEB
36BFF
00F9E
2228B
22A0A
2228A
00883
2BFC7
32F6B
36BFF
00FD6
2E64E
13AEE
15AFA
00BBF
22AB2
2AAAB
302AA
00AAE
1BECB
33B8B
38AEB
00AF2
1AFCF
22FEB
3A6BF
00BCE
2E2BC
220BC
2FAAA
009AA
397AF
33EEA
36BFB
00FAF
2AAAA
02A82
20AAA
00A8E
32AB3
33AEA
2FF6A
00F5F
2EFAF
20FDE
357F8
00BEE
3EAF3
22EBA
23AEE
00EEA
3BB8B
33FDB
35BFB
00FAF
3EA81
23AF2
2FF6A
0075F
27EE6
2FB7B
396EF
00AF6
