FFFFFCDE
000001D5
FFFFFDE0
FFFFFDD6
FFFFFF54
FFFFFEB5
00000262
0000011F
FFFFFF62
000000FB
FFFFFD09
000000CC
FFFFFFAD
FFFFFF74
FFFFFEA6
FFFFFD48
FFFFFF1F
FFFFFD40
FFFFFEEB
FFFFFDE7
FFFFFED6
00000044
FFFFFE9C
FFFFFEC7
FFFFFF3B
FFFFFDFF
00000131
FFFFFE6F
FFFFFD32
FFFFFFC6
FFFFFE10
00000093
FFFFFEB1
FFFFFE80
FFFFFDF9
FFFFFE22
00000054
FFFFFF12
FFFFFF32
FFFFFF53
