000000A2
FFFFFF8E
FFFFFF17
FFFFFD75
FFFFFEBE
FFFFFEE1
FFFFFF93
FFFFFF13
FFFFFEE6
FFFFFEDC
FFFFFDA0
FFFFFEFE
FFFFFD8C
FFFFFF45
FFFFFDBB
FFFFFDD5
FFFFFD9B
0000005C
00000022
FFFFFDF4
FFFFFEBE
FFFFFEF8
FFFFFF46
FFFFFEAA
FFFFFEAF
FFFFFF6E
FFFFFEFC
FFFFFBC4
FFFFFFDE
FFFFFDE7
FFFFFF1E
FFFFFD1F
FFFFFFA0
FFFFFF30
FFFFFFA7
FFFFFE42
FFFFFF15
0000000A
FFFFFFC4
FFFFFEA0
FFFFFF11
FFFFFEB1
FFFFFB3E
FFFFFE96
00000033
FFFFFEDA
FFFFFDE7
FFFFFED2
FFFFFE03
FFFFFFB8
FFFFFE38
00000005
FFFFFF0D
FFFFFF00
FFFFFECA
FFFFFF2A
FFFFFEDB
000000BD
FFFFFD15
FFFFFE33
FFFFFDFC
FFFFFF08
00000022
FFFFFD90
FFFFFF16
FFFFFD73
FFFFFF06
0000001A
FFFFFF8C
FFFFFDE0
FFFFFFDF
FFFFFF22
FFFFFEEF
FFFFFDE8
FFFFFBF4
00000023
FFFFFE9A
FFFFFF17
FFFFFE1A
FFFFFE0E
FFFFFE48
FFFFFE15
FFFFFDB0
FFFFFE50
FFFFFEB8
FFFFFE3C
FFFFFD8F
000001C0
FFFFFF45
0000022A
00000011
FFFFFE5E
FFFFFF8A
FFFFFF36
FFFFFED1
FFFFFC9C
FFFFFEF8
FFFFFEC7
0000004B
FFFFFEF4
FFFFFDE7
FFFFFE72
FFFFFEB7
FFFFFE50
FFFFFE03
0000007F
FFFFFDF1
FFFFFECC
FFFFFF03
FFFFFEDE
FFFFFE2C
FFFFFBE3
FFFFFF80
00000043
000000A3
00000036
FFFFFEA4
FFFFFF20
0000002A
FFFFFF9B
FFFFFCAB
FFFFFFAF
FFFFFE38
0000013A
00000031
FFFFFD3F
000000A0
FFFFFFC4
FFFFFD29
FFFFFE11
00000002
FFFFFE5D
FFFFFE16
FFFFFE02
0000001E
FFFFFEC3
FFFFFEAE
FFFFFF9D
FFFFFEF6
FFFFFEBD
00000074
FFFFFF6A
FFFFFE28
00000047
00000079
FFFFFDF9
FFFFFD8B
FFFFFD44
FFFFFEC4
FFFFFF28
FFFFFE6C
FFFFFD96
0000001D
FFFFFDC6
FFFFFD65
FFFFFB79
FFFFFFA0
FFFFFFBE
FFFFFED4
FFFFFD36
