FFFFFFDE
FFFFFA83
FFFFFB38
FFFFFBA9
FFFFFFE4
FFFFFF0E
FFFFFF51
FFFFFFFF
FFFFF70A
FFFFFEDE
00000064
FFFFF53A
FFFFF86F
FFFFFFE1
FFFFFFF0
FFFFFFEC
00000725
00000000
FFFFFCA2
FFFFFF22
FFFFFFAE
FFFFFFF3
FFFFFFF3
FFFFFFB6
FFFFFF20
FFFFFFC8
000001E6
FFFFFC4B
FFFFFFD8
FFFFFECE
FFFFFB04
FFFFFD13
0000073F
FFFFF989
FFFFFCA7
FFFFFD09
FFFFFD7D
FFFFFFFD
FFFFF838
FFFFFD3A
