00AAF
3AA23
03FA2
2F3B8
2AAFA
3F8BA
2A8FA
3FBAB
3A23A
2AEBA
00BAB
38BB2
2FEBA
0E8A2
3ABAF
2EBFA
2BFFF
2EE8F
3FB2E
3EBFE
0E2AB
00AEA
3EBA2
3AAAF
08ABB
2E8EA
0AAAE
3FFCA
2E8CA
3FB8C
2ECAB
2FF2B
00EAA
3B2EA
0AF2B
0FBF2
3EFCB
3EFBF
3BF3F
3FAFC
3FEFC
2DBEA
2BFCB
00E8A
2FABC
32EB2
2EFBF
2EBBF
2FEAA
22FFA
2DAEA
3AAE8
20B2B
39BBA
008AE
23FEB
2C2AA
2ACE6
2AAEA
2BBBC
3EABF
3FBEB
2EFAA
23E3F
3E3EE
00FFE
3FEBE
3CFE8
3FFF0
2C2FA
3BF32
0ECEF
3BFFF
2BAAF
338BB
3EFBB
00CBF
3EBBF
3EFFF
23BFF
0ECFF
22FA2
3FFFC
3E3FE
3F2FF
3EFFB
3FFFF
00FC3
33FFC
2EBFF
338BA
3F08A
3FF8F
3AFAB
3E8FF
0FEBF
3BFFB
2EBEE
00EFB
3AECF
2BFEE
2EBEA
3FAFE
3EBFA
23EBF
3BFEF
2CAEB
3ABBE
2CAB3
00FEB
2FBFB
2283A
3AFBE
2EAAF
3BBBD
23FBF
3CCA3
2FFBB
3ECB3
2FEFF
00FF2
3EBFF
3CEB3
3AFFB
3EFFE
2BBBA
2A2F8
2FBA3
0F8AF
2B8BA
38ABE
00AA2
26AA8
3DAB2
3BAA2
26E3C
2BAA8
2AF2E
3BAB9
3E8CA
2BBAB
3EFCB
003FF
3BEFA
2EBFF
2AAAA
0EAAA
22EAB
0AE8B
2A83F
0A2AA
3EFFC
3BFAF
00FBF
3ECFF
33FFF
3FBBF
3FFBF
3BFBE
0EBE3
3B0EA
2FBFE
0BEEF
2BAAE
00FA1
2EB8A
0BBFB
2EAE2
0ABB3
3AFAE
330FA
2FA9E
3EA9C
3ABAB
3BBEF
003EA
2E2EE
3A8BF
2CE8B
2BBA6
2EAEB
3BBEE
2E8EE
28BAA
28EEE
3B2BA
00EBA
33CB2
2EABA
3CCEB
27C3F
3BABB
2FBFE
2FFCF
3EAAB
2FFAF
3BE8F
00AEF
29FFE
2ABEE
2AAE2
3F2FE
2AEC8
2AEE2
2ABE8
2BE22
22AEF
2AAE6
00F6A
2BFEF
3EFBA
3AFFF
1BAFA
2EBE2
32E8F
2AAEA
0ECE6
2ABAF
2EEBE
00EEA
3EAFF
2BB23
2FFEB
22F3B
2ABBC
0C8BF
