2AAAC
3AAAB
0BBAE
23BFB
2AAFA
20A72
2AAFA
0FBA8
2AE3A
2AEAE
00BAF
3BAB2
2CEBE
3AB8A
3ABAF
22BF2
2BFCF
2EEA3
3F3EA
32BEE
0EAAB
00AEE
3EBA2
36AAF
2AA8B
2EAEA
0C8AE
3F3BA
0EAEA
2FBAF
2EEAB
3FF2B
00EAA
3BAEA
2FFEB
33BBE
3EFEB
3C3BF
3BFAF
3E2FF
3E2BE
2EBE2
2BF38
00EA8
2FBFE
3EFB2
3EBBF
2EBBF
2BE3A
2AFBA
2DAEA
3A1EB
22BAB
3AFBB
0088F
2FFEB
2EFEA
2AE2A
22AEA
3FBBF
3EEBF
3FBEB
2EE8A
2AEFF
3E3FE
00FCE
3FFBE
3CFEA
0FFFA
2F23A
3BF22
0A2CF
3B3CE
2BAAF
3FBF3
3EF3B
00FF3
3EBBF
3EEFF
2BBFF
3EFF3
323EA
3FCFF
3EBFE
3F8FC
3FFFB
3FFCF
00FCF
3BFFC
2E3FF
3B8BA
2FB8A
3FFAF
3AEB3
3E8FF
0FEBF
3BFFF
2ECCE
00CFF
3A0FF
0BFEF
22FEE
3FAFE
3E3FA
2EE2F
3AFF3
2EADF
3ABFF
2EDB3
00FFB
2E7FB
1B8FA
32FBE
222BF
3BBBD
2FFAF
3C3AC
2FEBB
3EEB3
3FEFF
00FFE
3EBFF
3FE3B
3ACFB
3FFFE
3BBBA
2AEF8
2FBA3
23A8F
2B088
3BABE
00A2E
26AA8
3DABE
3BAA2
26AFE
2BAAE
2E32C
0BABA
3EAFA
2BBAB
2EFC8
00BFF
3723A
2EBCB
2BAAA
2EAAA
23FAB
3AEBB
3AAFF
2ADAA
3EFFE
03F2F
00FAA
3EE3F
33F0F
0EBB8
3FFBF
3FFAE
2FB23
38EEA
2FBFE
2BEEF
03A82
00FAE
0EAE2
3B3FB
2FEEA
08BB3
3AFAE
3BCBA
2FA9F
32AAF
22BA0
33BFF
00C2A
0C22E
3ABBF
3FEBB
0B396
2EAEB
3BBCE
2EB2E
2BBA2
2BECE
33A8A
00EBA
0FFBA
2CABA
3FCEB
0BFFF
378BB
2FBF3
2FFFF
3EA2B
2FFBF
3BE8F
002FF
2AFCE
2ABEE
2A622
3FEFE
2B2EB
2AEE2
2ABEB
23E2C
2E8EF
28AC6
00FAA
2BFEF
3EFBA
3AFFF
2BAFE
2EAE2
00E73
08AEA
322D4
2EB9C
2FEBE
002AA
3E8FC
2BB0B
2FFFB
2EFBB
2A33E
2FBBF
