08AAA
3A8BA
2AFFE
3FBBA
2EFB4
3A0EE
3CBBF
3FB83
3EBCE
2FFCA
00FEE
2BA2E
3ABAD
2E2EA
2EB8E
2AFFA
3BEAC
2AB8E
23E28
3E23E
2B82A
00EBA
3ABEA
3BEAA
19EB3
0A68A
2EA3E
3BAEE
286EE
2AAE2
0E2EB
2AAEA
00EEB
2ECFF
0FCFF
3FF32
3CECF
3FFFF
3FEBB
3AFEB
3FFFF
0EFEB
2BBFE
00FFF
2EEB8
3A8FF
2AAA2
2FBBE
20FFF
3ABEF
0BFFC
3FFAA
2AAFA
2BBBE
00FAB
2EAAE
2AAAE
2F9AA
2BAEB
2A2ED
3ABE3
2BAEA
2BE8A
2ABEA
3BAAB
00AFB
2FB3C
0AAE3
3FBAF
1FAE3
20C8A
2FFFF
3BEAE
0A63F
3EFA2
2CFEB
00AAA
2E28E
3BACA
2B8AA
2FA2A
3EBCB
2AFEF
2B2AE
3AAEE
3AFAA
2A82B
00AEA
3FAEF
2A2EF
3EEA8
3EFEE
3AF32
32FAA
22CAF
023BA
3EF0F
2AAEA
00AAF
22AB2
2A8AE
2AACE
3FECE
3EABA
3BF3E
2B3AC
3ECAB
0BEBA
23BEB
00EED
2EABC
3BBA8
2EE2B
3BEEE
3FEE3
3EFAA
3FFFF
23FAE
3FAAB
2AAAF
002A3
2AF3A
332F8
3BB38
2FAFB
3BF33
3BBFF
2BB2F
3EBE8
2FACB
3B3CA
00FF8
2EFAA
3A28E
2AAEA
2E202
28BBA
0FBAF
362EE
0AFAA
3AAAA
2AAAE
00FAD
0EFAB
3FAFB
3ABBB
3FEFF
3BF2F
3BFAB
3ABAB
0BFB8
33EA8
3BAFE
00FFF
2EAAE
0AAEE
2CEE2
0FF2F
3EB2F
3AFAA
2BF2F
38FAB
3A92A
2B80A
00E8E
2AF2F
2CBFF
3FFBF
3ABAB
2EEAF
2FFAB
2ABAB
22E0A
2EFEE
3EAFB
00BA2
2FA3F
33BFB
3EEFF
3BF2E
3FFF3
30EB2
2FFBF
2FFBB
3BEFF
3FFCF
00CBE
2AA8E
0B0AC
2FEAF
3BEEE
0CBB8
2FEAA
3E8EF
0BF2E
38BB3
2ABE3
00EAE
2AAAA
2BCAA
2CEAF
2AAA3
2CAAE
2BABA
0E738
2CEE2
2AFE8
2A2B0
008FB
2E6A0
27BA0
2FEAF
3AEEE
2DBEA
0FFAB
23FAC
2AFAA
3ABE3
22AEE
00A6E
3FBFA
3BE2A
3BBAA
22A2B
3B2B2
2EAEC
2B2EA
3EAFE
0EAAA
32AA3
00CBA
3CCFF
2F00E
2AEB3
0CFAB
0EFEE
2AFAB
0FFEB
3AAC8
2C3FF
2CCFC
00BAF
2AAFB
2AAAB
2AAAA
03ADE
3AFA2
2AAA8
2AEEE
28BEA
3CAAB
2AAEA
00A8B
3AEFE
2FEAE
2AEEF
2ABCE
3FEFE
2B2FF
283EE
2FBF8
2F3CB
33FFC
00AFB
2FA8C
2BBAE
2FE2F
33FEE
2AECE
33BBB
0AFFA
2AF3B
3FBFE
0EFAB
00AFC
2F23C
3BAA2
23FAF
2BBEF
3FEBC
3AFFF
2F3FA
2CAFF
0EFEA
0FFAE
00C3B
2EABB
2B33A
2EEA2
3AE2E
2ECAE
2E2A2
2AB2B
3BFEA
0CBAF
32BAA
00A8E
2AEF2
2FFAE
3ACBB
0FBFF
3F2EF
3BACF
2FEFB
2F3EB
22BEB
3BFFE
000FB
29A8A
39BE8
2AEFA
0AAA5
2ABA8
3AABA
26B7A
023AE
2AB22
2A8AA
00FA8
2A2AB
233BA
3EEFB
32EEA
2EB72
3F2BA
2ABBF
0AE2A
3FBB3
02AFB
00FDE
3EBAB
33ABB
23F8A
3ADFB
2BBBB
3F2BA
3FFAF
33BAA
3EFAB
2AA3A
00CEE
3CEEA
2FFFC
32E3B
32EEB
3FFBF
2FEA3
3EF2B
232FF
2CF2B
3CBFE
00CEF
2FFBE
3EAEB
3AABA
22B7A
2BAFB
3BBAE
3FEEC
3CB2E
2AAAA
3AFBE
00FBF
2AA2E
2ABAE
2EAAA
0ABAA
2AEEA
32AAF
2BB8A
2AEBA
2EB8E
2FBAA
00AA0
2BACE
2B3AE
2EEEF
2C3E3
32EAE
32BAC
2FEA2
2AEB8
3FBFF
2EFBF
00EBF
3FCAF
0BEF3
3FBEB
38EEB
3BFAF
2EFF8
2ACAA
3AFFF
3FF3F
3EB38
00E8E
2AE8A
3BBAA
2E3EA
23BBC
2A2AA
3EAE2
2BBBB
2FEAB
28AFE
2B8AE
00FA8
3FAEF
2BAAE
2AEAE
2ABEE
0AE8A
2BAAF
0AEEB
3BAFA
2EAEB
0EEAE
00A3B
2AABE
3ABAE
2EEE2
3FAAA
2EE3A
33E3C
2BBBE
2AEEF
3CB8E
22BEA
00FFE
3CFBE
3FAFA
2ABB2
2CAFB
2BFFB
3A3EF
3FEEF
3FAFE
3ECAA
0EBBE
00BEF
26AAB
2BBBA
2EF8A
3EFFE
2AA8A
3FABA
2ABAB
2BEAA
3EB3C
2AAFB
00AEC
2AEAE
2BBE9
26A23
2ABBF
3AAFE
3BAEB
2FAEA
2BAEB
2B2EA
3BBAE
00ABB
2EEBF
3A83C
2FAAA
2F2CB
0FFFC
3EFEB
0BFAE
3EABF
3F3AB
2FBAF
00CAB
2AAAA
2FFB2
2AEEA
3AFEE
0EAA2
3BA8A
2ABEB
2BFEA
2ABFB
3AAFA
00AEF
2BAFE
32AFA
22EFE
3338E
28FF8
32BAE
2E8FF
3FFA2
3BAF2
23BBB
00FEF
3AFBB
3FEFF
3BABF
3EEBA
3BCBB
2FFAC
3FB8F
3BA28
3BEBA
3FAB8
00FEE
2EAFE
2C0F3
33E22
3AEEF
2FBAF
08CAB
22FA3
0BFEB
2BFAB
3ACFE
00ABE
2BEB8
3ABBE
2AAEA
3BEEE
2AF8A
3BAE3
34BAF
0AEAB
3E683
2FAEA
00EAE
3FEFB
2AEAF
2BAAE
1ABE2
32EBE
2A3EF
2BEEB
3BAF0
2EF2B
2EA0E
00BFB
2AABB
08BBA
2AE3A
3AFEE
2E2AA
3B9AE
2EBEB
33FAA
2EAFB
3AAE2
00AEE
2ABBA
308A2
2DEBA
3BABA
2CEBA
3EE3E
0F7BE
2FEAC
3ABAA
2F38B
00F2A
2BFFA
3FE8F
2EE8E
2BAFB
3F8FE
23AAF
3FEC3
2BFFF
12AE3
3FABE
00CF3
3AF2B
0CFF8
3B8BC
220BB
2FABF
23F8A
3FF8B
3FAAF
2BEAE
3EFBF
00BF3
2FFAA
23B2E
3EAFF
3F3FE
3EE3C
3FF8F
3BB3B
2AEBB
1F7FF
3FCFB
003BF
0AFE0
2BFCE
2EE3F
2ABAE
2CFAE
2F2AF
0BBC8
2AEB0
2FBFF
3EFAF
008AF
2EAAB
2EE23
0A0AA
3AEEF
2A3AB
2EFA8
32EA2
3BFAF
3ABAB
2AA8E
00EAE
2ECB8
3FAFB
2A83A
3A2A9
3FBBB
2AEAC
0BBCE
3EBA3
2AAAA
0EEAA
00FAA
23CEB
2B2AE
2AABE
1EAEC
38ABA
2ABEF
20ADA
3A6FE
2EBA3
2EAAF
008AB
28E3E
2BAAE
2A8AF
2ABAE
3CBFE
1B2BB
2A8EE
288CF
2BAEA
0AFBE
00ABB
2AEFA
0BFBC
2ECFF
03BAE
3EEFA
33FBB
3B3BF
23FEF
0FFFE
0FFFB
00FEE
28BEE
3AECE
3BBEB
0FACB
3E3FE
3BBFB
2BBAA
32AFB
3FAAB
3BAEA
00EFA
3ABEB
0FCFF
33FAF
39EAB
0FBAF
2AEA7
3EFEB
2BEF8
3BFFB
3AAFA
00AAF
3ACFE
2FEFE
2AA3F
2A8AB
3FA8E
1FAAB
2EBEB
0BACF
2BEEA
3FAAF
00A0B
3AEFB
2223F
29A8A
2BB8E
0ACFE
0ABAE
2BAFB
2C0EE
1AA2A
33BBE
003A3
2A8BA
382BA
2AAEA
2B8AA
2ABB6
3ABE2
2AAAE
2BFEA
3AAFA
28AAA
00CE2
22AA8
28BAE
2EAAA
38EEE
2ABAA
2EEAB
3ABEE
2BFBE
3EBAF
2FAAC
00AAE
2AA8B
2AAFB
2EEEA
3AEAE
2ABAA
3ECAA
3ABBC
20FAA
3AFFA
28ABA
002ED
3AFF8
23EB2
228BB
2E8FF
3FAAE
23EEC
28A2B
2AAFF
0AAA8
33AE0
008FA
3ABEA
32AB8
2E3FB
3FEB2
3AAAB
3EFFE
3F88E
2FFAE
3ACAA
2AA2A
00CEA
2FAFE
2AAAE
20AEB
2BBEC
3CEEE
3AFEF
1AEC2
228F8
2AEEA
2AAAE
00ABB
29AAA
2FBAA
2A2AA
2A8AE
22AAF
2BAAA
3ABBB
2B2AA
2A3A8
088AE
00AAE
22AAA
2AAAE
1AAEB
03B83
2E8FE
3BFEA
2BC8F
2BE2A
2AAAA
2A8FA
00BEB
2EBBF
3FAFB
3FCEF
3BEFF
2F3FB
3F3FE
3FFAC
23EBB
3CFAF
2EBBE
00FAB
2FC2A
3BB38
23BEF
3B8AA
2ABBA
0CAFA
3CBF2
3F2FF
2BAFF
0FFEB
00FF3
2AFBA
3FA8B
2AEEE
3BEF0
333FB
3B8CE
3A6BF
2FF2A
3FF2B
28F3E
00EFA
3BECB
3B28A
2AE8A
2ABAE
3AEAA
3DA9E
2B8EA
20AE2
2EBAB
2A8AA
008CA
2AAA9
0BABA
26AEF
2A8AB
02BEE
0BAAA
2F8E2
2AAEA
2AAEB
38B2A
00EAB
3AEB8
2AA8B
2228E
2ADAA
3FBBB
2AEAE
2AB2A
3AFEC
2BAA9
2EBAE
00FCA
2AEAA
2FEAA
2AAA2
1AA0B
2BAFE
28A3B
0EEEA
23BF8
0BAAB
32A8E
008AB
2BEAD
2BAE2
2AE23
2E7AF
3FBBE
1B8A8
28BEE
2AECA
2AAEA
2A2AA
00A2B
2CFBC
0C8CF
0CBAB
2EBFF
3FEFF
2BFFB
0FCFC
23E3B
2C2EB
3FFBC
00AA3
2AAA2
328A8
3E2AA
3AC2E
288B8
2AEAB
0E2AB
3BBAA
28ABB
2BEAA
0066A
3EE8E
0ABAA
2AAAA
3BCFF
2BAF8
3BFEF
3FEEC
033A2
2ABAA
2ABB2
00BA2
3EAAB
3BB3B
2EACC
33EAA
3BBBB
3ECAE
08BEC
3CFA2
3EBAA
22CAA
00EEB
3EBFE
3FEFB
33FFC
3EEFB
3FFEF
3BFFF
3FB8B
3FFCB
3EFEB
3AFF2
00FFF
2AEFB
2FBBF
2AEAF
3AEDE
3F30B
23CA2
2EBAF
03FDA
28BAB
3AAEE
00EEF
2EABA
3ABAE
2E0C0
2BAAA
0FE2E
3AA3E
2ABFF
23EEF
3F8FF
23FEB
00EFA
3AAAB
2BBAF
2AF3A
3AFBE
2AAAA
3E289
2EABE
2BEAE
3AFFE
2EA88
00BFA
3A8FA
3CA08
0A2AE
38E8A
2BAAB
3AECE
3E8B3
30AEE
3EEAA
2AFAA
00FCB
2AEEA
23ABA
2AABF
2AAB8
2B8AE
2AA0A
0EAEA
28AAA
2AAEB
2AEAE
00A0B
3AFFB
2FFFB
32EB0
398C8
23E8E
2EAAF
3FBAB
3BFFA
2EFAF
3EEF8
00BAE
2FFAE
3FEFE
2BBFA
2FEFB
3EFFF
3BBCF
3B0EF
2FAFB
2FAEB
0F8EE
00FF3
0AABB
2EEBF
3EEBF
3EEAA
3EBAF
03EAA
2ABF3
2C3EA
36FAB
2AAF2
00FFF
2ABBA
2B8BE
2AAEF
3AEEA
3EBAE
2CAAE
288AE
3BB23
2BACB
2BBAF
00EBE
2CFBE
3A88A
2A32A
238FF
2AEFE
3B3EF
23E3F
2FEF8
2BA0A
32BBE
00B3A
2EACE
2BEFA
33AAA
2FAEB
2ABAF
223FB
0AEFA
3A2FE
3AE2A
2A3AA
008AB
2AEAA
0FB3E
2EA2A
3BFBE
2EFF2
3BFBA
3CFEB
2BF28
2B6BF
0FBFE
00BEF
2AAC8
3A3AE
2EFAB
3BFAD
2E2CA
2EAB8
28BEA
2AEBF
2FBFE
232E8
00AEF
2EFFB
3EEFF
3FB08
3CEFB
3C3EF
2FFBB
38EFE
0ABFF
28FAB
32B3E
00ABF
2FBBB
2ABAC
2EEAA
3ACEE
2AEAA
3CEBB
2AFFC
2BFBE
3FB2F
2CABB
00AEE
2AFBB
3F2FA
08FFE
3FEFA
0FFFC
3FFFE
3BBBF
0FEFB
2CAAA
2033A
00FE3
2AFAA
3EAF6
08AB9
3BAFA
2A8C8
3ABAE
3F8CC
2FBBA
2EAAA
382B1
00FAB
2BECE
2BB20
2EEAF
0ABAF
2EEFE
2EA83
2BBEA
2AFE3
2CFCF
3EFEF
00AFB
3EF3B
2EE3B
08BBB
2F23B
338FE
3A3EE
33AEF
322EE
3BAAB
3A2BE
00FFB
3EF2A
2FEFA
3BBAA
2A2F3
2BEAE
2FB2A
3FEEB
03BBA
28FAB
3AABE
00BAF
2AAAA
2A8EB
24A2A
3AEAE
2E882
2B8A8
2AEAB
2BBAA
1AAAB
3AABE
00AAA
3ECE3
23EEB
3BCBF
39EE8
2F3AC
2CEB8
3BBEB
3ABF2
2EFAF
3E2EB
007AE
2EEBF
0B883
2AEAB
0AEED
0BBFB
2AAAC
2AA2E
3BBEE
38AAB
0AAEE
00AAE
2F2FF
2BBAC
2EBEF
2BFEF
3FEEA
2FBF3
2EFFE
28F3F
3FBFC
22E2F
00EBF
2EA3B
3AAAA
2E8EA
2F2EE
38FBA
3AFEE
2AEBE
3F22F
3EAAB
13AAA
00EAE
2AFA2
20ABB
3AABA
1AABA
2B3FC
28BAB
3BEEC
2A88A
28AAB
3AABE
008AB
2FBEF
0BEFE
3BBA8
3FEC3
3EFCF
0BFFB
3BEEE
3EEFF
3CBAB
2F3E3
003EF
2AF8E
3EAB3
2AA2E
1A73B
2BBFE
2BAAF
3BAEE
2ABEE
28BEB
3ABBE
008AB
2EFAA
3E8BB
2AEFF
3FFF2
3AB8E
3FBEE
3BBFF
2FE28
3FAEB
3B2B0
00FEB
2F8AD
3BBC2
3AAEA
3AA0A
2AFFE
2CB9F
37EEE
38FEE
2E9A8
3AA7E
00F7B
2FBAE
3BEFA
3FBAB
2EAEB
3F3BE
2BAEB
38AEE
0EBFA
3E8AB
32AE2
00EAE
23EB2
2BB3F
3EEFF
3BFAE
2FEEB
3FCBF
22FFF
2BFBB
2FAFC
3FC3B
00BAF
2AABA
2A8AB
2ADEA
3AEAA
23AAB
32FAA
2AFAF
2BFAA
2ABAA
2AAFE
00E8A
2AAAA
2FABA
2A0E2
228BF
0FBE0
3BABA
3EACB
0FEAA
3BAFA
2B8BC
008AB
3EBEE
2BECB
3FBAA
2EA2B
3AB8F
2EA2B
32EEE
0ABEA
3AFEB
0A88C
008FB
2EEAE
0EC0C
3EA38
3E8FF
2FEEF
0BFAB
3FCF3
2B2BA
2EFE8
3E3FC
00BB3
0BA20
22BA3
2EABA
2AB8A
2BE88
2EA88
3ABBA
0C2F3
20BEE
2FFAB
00BAB
3A8FB
2EE3F
0FEB2
30EFA
3AFA3
2FEAA
3A8AB
3CBEF
3CFA3
3CAFA
002FE
0AEBC
3EEAB
0AAAA
2AAAA
2B82B
28EAA
3FAAF
3EF2E
22EAA
3A8CE
00BA8
2ABAF
3EFFF
3FAFF
3EEEF
3FF3F
2FBAB
3EFEB
303BA
3FBEB
3CEFB
008EE
3BFBE
3BBFF
0EFCF
3EFBE
0FECB
3E8FC
023BF
0FFA3
3BBFF
33BF0
00FFE
3ACEA
2ECFA
2AAB8
28EAE
3ABB8
2A8AE
2AAE3
38E8F
2AAA8
3BB8E
00EBA
2A3AA
3FEBB
3BFFF
3AAFB
3FBAE
0FABA
3BB8B
2F2EA
272AB
3A8FF
002E2
23FFE
3BAFE
2EFEF
2EBEF
3FFFE
2FC8F
2BFEE
3A8F8
2CBEF
3CFE3
00AEF
2F8AC
3BBEE
3FBEF
2BBAF
0CFAE
2B3FB
0AFF2
08AFF
3FBFC
2FFAF
00EB3
2BEEE
233FF
2EEBE
3ABAB
2EEEE
0FAB3
2BBEA
2AFF8
2CFEF
3C8AB
00BEB
2ABA3
2A3BB
238AA
3EAEB
0EB6F
2FE06
28FA8
0AECA
3AFA2
2AAEB
00AAA
2AEFE
3ABBE
2A2EA
3BEBE
2FFFE
3FFFF
23ABF
2FEAB
33ABA
2BB80
00FEC
2AFAA
3FAFB
242FA
3FEFA
3BBBB
3BCEE
3AAAF
3FFAA
3AAA8
2ABBA
00FEE
2E2FE
3BF3E
2EEAE
3ABC8
0CFCE
2AAAB
2ABEB
220FB
2EBEF
28BEA
00ABB
2E08C
3BAEF
2FBEF
2FAEE
3AFFE
3CFB3
3FCAE
3FBFF
3FBA0
2FFBF
00EAB
2AAAF
3BAAE
2E8BA
0E3E2
2EEBA
3ECAF
2BBAE
3A2EF
3CBAB
2EBAB
00EAE
2BFBE
22AFB
3BAAB
2EAFB
2BB08
2BBE3
082AE
0ABAA
2828A
3ACAE
00ABA
2EFAE
0EAEF
2A8EA
2CEF3
323EE
3FBA3
3FEFE
2828F
2BB2B
38BBE
00FAF
2A8AA
2BAAA
2EA8A
3C4AA
0EAAA
3EAFC
2BBBA
0AD2A
3AB02
2B82A
00CEF
2FEEF
2AC3F
2AAAA
2ABAE
2AECA
2ABAF
0CEEA
3CBFA
2EAA2
3AB2E
00A2B
3E30E
3EEFF
3BF3A
0F2EF
3BB3F
3ABEA
3BFAF
3AF8A
3AEB2
3BBBF
00EEA
3EFFE
3CAAB
0AEB8
2BA38
2FBF3
3EECE
3FEBF
3FBEC
22FAE
32B3E
00FAB
2AA2A
3BFAA
2EEAA
3A8AE
1EAA3
3BEAA
3EA3B
2BCAA
3A3EB
2AABA
008DA
3AAAB
3A7AE
2E2FA
33EAA
23BF8
3BFAA
2A8BF
3BFAA
32AAA
2BABA
00AEA
3EAEC
2F23A
2BAAA
2AEEB
3F38C
2EAAB
3EEEA
28AFC
2EFAB
3AB82
00BAB
2ABB2
2AE26
2BAEF
2EAEA
2EBBE
2BEAA
2BAAE
2A8D2
2A28A
0ACEB
00AAA
2CFBA
33FA3
3BF3B
2FAFF
0FACE
3FBCC
2FEF3
2FFEA
2B28A
0B0BE
00A33
2AAAA
2AAAA
2ABAA
2CAF2
3AAAE
3BCA8
2EAFA
2C92A
3BABA
2A2A0
00E2B
0A2EB
2AEBB
26ABA
32ABA
3ABBB
3BAE2
2BAAE
3BA2E
0A2AA
0AAAA
00FAA
22AA2
2EAAA
2C829
3AA8B
28AAE
2EE38
3DEEB
2CA8A
3AEAB
2AAAE
00AAB
2FBAE
3A8BE
2AFEF
33BBA
3AFFA
3BAE2
2BBBF
2ACAB
2EAFE
2FBE8
00CAE
23AAF
2BBAE
2CAE8
38FEE
3E2EE
23AAB
2A3EA
2BFFA
2FAFF
02EEF
00AAF
3E2C0
2FAFF
0AEAF
0AFAC
3FFFF
2BFAB
3CFEB
0FFFA
2EBEB
3EBFE
00BEF
2EFA3
3C2F0
03BB2
2FFFF
33FFF
3BBEF
3FCEF
3CFAB
3AA2A
3FFBE
00F2F
2EFBC
30AFB
0FFA0
2FE2E
2A3FB
3BF8F
3BE2E
32BEE
328AA
2A8A2
00FAA
2CFAE
2BBEF
2EA8B
3E3BF
222FF
2FCAB
3FFEB
2AEBB
1EBFF
2CABF
008AF
2BAF2
3A3A2
2ACEF
3F8B2
2A23A
3AAFF
22BFF
3CEBA
3FAFE
2FFE6
00CFB
2EEAE
0EBF0
0AAAA
3AFBC
00BEA
2EBA8
3EEBB
2BEAB
1BA2B
3BABE
00BAF
2C2BF
3B3CB
3FF2B
3FEEE
2FFFB
3EFBB
0FFEC
3FFFF
3FB2F
0CB8F
00FEF
