3BFB2
0CE3F
0FEFA
0B3EA
3BE2B
3BFE3
3CE3E
2FBFA
2CECF
2EBAE
00FAC
3EFEF
0FF23
3AF2F
3FFAE
0FBED
2ADAA
23FBE
2ABC8
27AEC
2B9F9
00CF8
0BEFF
23AFB
21BEF
2AAAE
24BEB
2AB26
2ADCE
2FEAF
0EAEB
2A96B
00BFC
0B2EE
2FBE2
2BDB8
2FAFA
3EA9A
3B3EB
2EEFE
3FFE2
3FDFF
28CFF
00F3C
2BA2B
2ABEE
2BA9E
288A2
33BEE
3AEAF
3EFCB
2ABFC
3E8EE
0FB68
00AA3
2BCFF
22BFF
2FCFC
2CAE1
3A7DE
3F8F3
29B8A
0FBEF
3C1FB
3AEFB
00BBC
2AEEA
2F3FA
3AEAF
3ABAF
3AEF7
2AB3A
2BEBB
32E8E
0BEFE
30EAF
009BF
3EAFF
2FBB0
38FBF
3EAFE
2EABF
2EBDA
2AA32
2FAEF
2AAAE
2FBBB
008BA
3823E
2FAFB
2DEBB
2BFAF
38BEA
2AFAA
2BEFE
2AFF2
3AACC
2AABB
0083B
3EA87
2FB8B
3B7EF
2FFEE
33FEE
22B2F
28EFE
23EEF
2BA9B
2F8AD
00AAA
