3AAAA
22E3E
00AA8
22230
0AEA2
22ACA
2FABB
2FEFF
2EAEB
3BFAB
00AEB
3FBAA
3BFFA
3FEBA
2BAEB
2EADB
3BFE7
1F5AE
36FAB
36EFE
3BFFA
00AEB
3EAEB
2BFEB
2EAFB
3AEA7
36EFF
2AAFA
0EEA2
2B20E
0AAEA
3A2A0
00AE8
23AAA
2BAA0
2EAAE
2AAFA
2ABAA
2AAAE
2AAEA
2FAAA
2AAAA
2AAAA
00ABA
2AAAA
2AAAA
3AABA
2EEAA
08288
2CB00
00222
0AA0C
02823
00008
002C8
3FEFB
2FBEE
2EDFE
25AF7
3FFFF
3FFEA
2AFE6
2EEAB
2EEEB
2AAAA
00AAA
2AFFA
2AAFE
3BAEA
3EFBF
2FBFB
2FFAF
3FFFB
3EFA7
3FFBE
3BEBE
00BBB
1A7AB
37BFB
3FABB
2AE6B
3AFFF
3BEFA
3F6BA
3BBBF
36FBE
3F7E6
00BBE
37DBF
3BABB
2AEAA
2AAAE
2FBEE
3AABE
2EAEA
2BAAE
2332C
0C22E
00CB0
38A82
28222
0BC88
32032
22EE0
0E82A
00FA8
03BFF
382C2
2380A
00A20
2EBFB
2EBBB
2BFAB
3FFBA
2BEFE
2A9AE
00BFF
0300C
00000
20C00
00033
00000
00300
3B000
2FEBB
2AADB
2BFFB
2F9BB
26EA7
36EFF
2EEBA
00BAE
3BEEB
3AAAF
2AABA
2EABA
2AAEA
3EBFE
3BFBF
2FFEB
3F6FD
36EBF
00B7F
3EFEF
2AAAD
2AAAB
2EEEE
3AEAB
3EAAB
2AAEF
2ABAA
3AFB0
3002E
00ABC
22C80
0A080
003BB
03C22
2EAAA
2AAAA
2EAAA
2BBAA
2AEAA
2AAAA
00BAE
2EAFF
2FFAB
3EE9F
3AF7E
2EBFE
2EEBB
2AFEE
3EEEE
2BBA8
3BBAB
00AAA
3AEEE
2EAEB
2EAAA
3EFFE
3FBE7
1BE9F
2AFFF
3DFF7
3FFEF
17EFD
00AEA
39FBE
3EBFA
2EEE9
2FAFF
2FA79
2AEEF
288B8
3BAB8
2BECC
28FAA
00A8A
2EBAC
2AFFA
3B6EB
37BAF
36ABF
27A7B
3FEAE
3AEAB
2FEBE
1F99F
00DDE
3BDFF
27FEB
2FEA9
3EDBF
2EFAA
3AFFE
2ABAB
2FFEE
3BFAE
3FAED
00BEF
2EFAA
2FEBD
297FB
3FFFA
2EFED
2BAEF
2FBAE
3EFFA
3BDEF
2FFAB
00ADF
3BFBA
3FFFE
3FFFB
2FEFB
3EAEB
3BFFB
2F6EB
3AFBB
3AEFF
3BFFA
00BFB
3AAFB
3BFBB
2DABB
37FBA
3AEFF
3BFFB
2BBFB
3BFAB
2FEFF
2BFDB
00EBE
3AEFF
233FA
3800C
08200
38000
30CA3
30302
2CF02
3AAFB
2FEAB
00FEE
2AEBF
2BF66
3AEFE
3EEB6
2BEAA
3AFEA
2AAAA
3AAAE
2EBDB
36AED
00EE7
