3A3AF
30F82
32BE8
3EBFF
3BFFF
2EFBF
3BFFF
2EDBF
3CFAE
2FBBF
00A0F
0BFAB
2EEFD
3E2EB
2FFE3
3EB7F
236FF
385BB
3EE8E
1A3EB
37BFF
00E1F
12AB6
2B8F6
3EAEE
2EB97
2FFFF
2F3FC
3ED7F
1F69E
1BEBB
3FDFD
006FB
3EBFE
3F3BE
3AEBF
2EFEF
3AB9F
3ABE7
3B2AE
2ABFB
1FEEF
2BDFB
002B3
2AAEF
17DBF
3F398
3EBFF
3AFEA
3FAAC
22F8F
2BFEF
2ECAF
22EFF
00DFB
39BB3
1FBEB
0E7FB
3F6FF
3BFF7
3DBED
2EAA2
3E7F8
3BDB6
27AF6
00AFE
2DAFE
3FFFF
02BCE
02828
2C802
088A0
23280
0AE82
00202
3FA8C
00BBB
2EBAA
28B8E
2FBCA
323FA
2BEBB
3EEEB
2F9F5
1FF1F
18F3E
3FDFF
00BBB
23F7F
3BBEA
3AFDF
3AEFB
3EAEB
2BCAB
3F3EA
3FFCF
3A3BB
3F8EB
003AF
2FFEE
2AAFF
2BEBF
2AAFA
392B9
2BBEF
2EEEE
2BF2A
3FAAF
3AAF2
00AEA
1FEEF
2BDFB
2FAB3
3FAAB
1A5FA
3FFCE
3AFAF
3EEBE
3EF21
23E3F
00FAF
03F8B
2FEFF
3FEF3
3BBFB
3AAFB
3B2EB
3AFEA
2EEEB
3EFFE
37BBE
00FEF
2AEFA
27EF6
3DBFE
3C76B
3EBFF
2AFBF
3FFFE
3BFAE
3FE2B
2FCAA
00FB8
1EFEF
3FAFF
27EEB
2EBEB
2AFFF
3BAFF
32AEF
29ECA
3BF2A
33AAC
00FAF
2CBEE
3ABEF
3BF0F
27AEA
3C2BF
0CFFF
2BEFB
3AEFB
363F6
3FFED
00FEE
0AFBA
3AAEF
1ECBF
2BEBE
2EBAE
3AAFA
00AAB
0000C
00000
00000
00000
00000
00000
2F000
3BBFB
3BEFB
0FBFB
3AFFA
23AEB
3FFFF
2ECFE
00EE5
3B8CB
3FFBF
3BFAB
2CEFF
3EFBF
2EEEE
2FBFA
3FEFF
3FFBE
3EEFF
00F8B
3AAAB
37BEB
3AE9F
362F7
3AAEB
1BF6B
3FBED
3FBFF
2FBFF
3BEFB
00CBB
3ABFF
2B2BF
3EBEB
3FFFF
2FDEF
3BEB2
2BDAF
2BCAB
226FE
3FFFF
00FFF
38FEB
0EABE
3BFAE
3EFE3
0BCBB
2EEFC
