20BAF
2AB8E
2F3EC
0BEBF
289F9
34099
29BBA
33BDF
3FBAF
264A6
00B0A
2AEBA
2E3BA
3ECAB
3BFAF
3BFFA
2BABA
3EEBC
3FBEE
3E3F2
2AA3F
00BAB
3FFAB
0EAEE
242A2
2AAA7
3BFD0
3F2EA
2EBF3
3FBFC
3BFEF
3FBB2
00F2B
3AECA
3B3EF
0BFFB
3EF3F
3FF3F
2FF3E
23FBC
3FEFF
3F3BF
2BBAB
00E2E
32EAD
318DB
3EAB0
2A75E
13FFA
2EFEB
2EEEF
2AA4F
27EFE
3FD8F
00BE3
2AAFE
0EFA7
0AAEB
3BEEB
2EFAE
0FD8B
3FBE6
2E2A8
2AEB6
3EEEE
00EFB
2FBDA
0BB8E
3BF3B
2FE3E
0CE2F
3FFFF
3AFBF
32EFF
3EEF3
3EFCF
00FFF
3ECFB
3FFFF
0FF3F
3AFEF
3FEEF
2FFFF
3E3FE
3BA3F
3FFEF
2BBBB
003AF
3BFF2
2EBFF
3FCAE
2C2AB
3BF8F
0BDAF
3EBFF
2A3B2
23AF9
3EBEA
002BF
22AE9
3EF31
2BFAB
3BBCA
0AEF8
32BEE
3EB8A
3EACA
36833
236FE
00FFB
2EB38
0EA82
3A3B7
3A0EF
3B7EF
3ACCE
03DEC
2EA3F
2BE8A
2CAEF
00EEA
2E8FB
3BAF2
2DBF7
3CEF7
3FBBF
2AFBA
3FF23
3BE38
2B89B
2EAFA
00B8A
0FBD2
3EF3F
2E89A
362BC
2B22E
36FFE
3AFF2
2EFFF
238BB
2CFFF
00EFE
3F3EF
2ABFF
2BBA9
2EAE2
09EA8
2AA8B
2E2AE
0E2E6
3EFBF
3AF8B
00EEE
3FFEF
38FAF
33EBF
3FEB6
3CEEE
3FFFF
3BF8E
2FFFE
3CFFF
3AEFB
00FFF
3CBBB
2BFBE
2CEE8
2FFF8
2EFAE
0AFBE
27EAE
3CAAA
3FFAB
3EAFF
00B68
26AAD
0BABE
12FFB
3E8EC
3FBBF
3F7AB
3EBEA
3AEB8
27EB0
2FB76
00C0F
3FFBF
2AA76
3D8F8
3EB9E
2BAB8
3B9BA
3FAE0
3BFFE
203EF
3AFBE
00CF6
37EE6
1FFEF
3FB12
2E9C2
3AEEE
2AB83
02B2F
2BAAF
2BDFF
3EAEF
00342
0BA30
2CFBA
10AAE
3FDEB
2EBFE
2ECA2
39BAB
3BEE8
2EA9B
2EFAE
00DAB
3EBAF
0EFE3
2FEEC
2FFFF
3FEEE
32EBB
