39AAF
26AEE
2FBA9
3A9BE
2DA87
283AA
0AEB2
0FBFA
3FFB2
1F16A
00FA3
23B3A
22E36
2A30B
38AEB
22FFE
2BBBE
0EEAB
3FAAA
2DE3A
2B21B
00BA8
3FBAA
2A9AF
3AAAC
1AAE6
3BAAE
2FFE7
2FBFF
3FFFF
2ACEF
3FE2B
00E3A
33FEA
3EFFF
33B32
3EF28
2FFBF
3BEAF
3EEFF
3EA3F
3E3BC
37EEF
00CB2
3FFFF
2EAF3
3EAFF
32AAB
2BAAA
2F3FB
3EFCB
13CBB
2BFFF
2AABF
00AAE
2CBFE
3EF0B
2EEBB
2FEE3
2EAFE
23BB9
2FB08
2EA7A
19A7A
3E5EE
00C97
3CA3A
2EFB6
33FAA
2EAB3
3FB8C
3EA3F
3FFCE
3BABB
3BF8F
3CFCF
003FE
0EACF
3E3FE
3E3DF
3BFFF
283F2
3FEF3
3BFFE
2BF3C
3AFFC
3FEFF
001A1
3BFAF
3E3FF
2FB3A
2E8AB
13F6F
33FAB
3EAFF
32ABB
3AEA0
3D8EE
008BA
3BABA
2EFAE
2D1AB
3E6EA
31ECF
28AAF
2BB9A
3D6BA
0BBAF
23E7F
00FEB
3FACA
2AAAB
1AB88
1E7A7
264AE
2AA7F
33FDB
2FFBB
3EFBA
2FEFF
00FFA
2EFCF
3EFFA
3B3FB
2CABA
3FAAF
0E94A
373EB
0A68F
27AAF
2AAB8
00AB1
3AB62
2D9AF
3CFAB
3AA3F
36AAA
0EB3E
3AAED
0EA2A
2BF4B
0EB8F
002FF
0A8F8
1AA0C
2EA6A
2EEAB
2AE6A
26EA8
2E6AA
2AAAA
2EFFE
08CAF
00FF8
3FFDF
3FBBF
3F3BE
3FEEB
3CBAE
37AF3
3F2AA
2FAFC
3EF32
2BEBA
00FEE
3FA8A
2B7BE
2393F
1E3B7
3A3BA
289BA
2B2A8
20E9B
3A89F
3BAEF
006A6
2AEFE
364B8
2EE26
2F8AF
2E9E0
2ABAD
21B18
0BAEA
1AAED
2D33A
00AA9
0FAB8
0DABE
394EB
29BEC
0BABC
2FFBD
3F3FA
33FFF
2B3EE
3BFAF
00EEC
3B0FB
33B2F
3ABEE
2E972
3EBFB
28CFC
3A8AF
3FEA2
23CC3
3E3BB
00FBE
3BAFE
2EFBA
3BE23
3F8BF
23FAA
32EB9
3AAA6
32FE3
2FFAB
3ECEF
00BAE
1AFAE
3ABB7
23D98
2AAF2
0FFBE
2ADFE
