2BBBF
3ABAF
3FBE0
3BFBE
2E8EA
3FBFE
3A8BA
3A23A
3CBEA
02FB8
002AF
2ECEE
2EEF3
3EB8E
3AFEC
33FFA
2BC88
3EEAF
3F7EE
2FBFE
382AF
002EA
2FFAF
2E8EF
3BAAF
22E8B
3BEAB
0E3FF
0FBFE
2BBEF
2BCFF
3A8AF
00CFA
0BFF2
3BCC3
2FEFE
2CBFD
3E3F8
3EFAC
2EF2F
3CDCB
3BFB0
13B8C
00E8E
2F2AE
3C9D7
3FAFE
2A7AE
0FBFB
2FFFF
23EEF
32B3F
3BEFC
3FE33
00EF3
3CAEE
0EEF7
0AFA8
3E2AB
2FE78
0FA7B
2CFFB
2EBA0
2BEB8
3EA2E
00CFA
2FAC8
2ABE9
3EFB8
33EBE
0CCBE
3EEEF
2EEEF
3FABF
36FCB
37BEF
00BFB
3FFBF
332AC
3EFBE
0FBEF
3B3AB
3FFFA
32CFE
3C3FF
3CFF3
0ABBF
00FFF
3AFFE
0EBFF
3E3AC
28AAB
3AE2C
2A9AF
3CABF
2AAB3
3ADFD
0EBFB
00B3F
2EABA
3DFAE
29F28
3FAEE
2F2E8
3AEEA
073EB
3E8AF
1BBF3
2A6FB
00FBF
0FAFE
1A3EF
0EF7B
2FBB7
3F8FC
2B8EE
2AE9F
329A2
2ACA0
2AEEB
00B9A
2ABBE
371AA
2FBE7
3EAFE
3FBEF
3EBA0
3BFCA
0DBAB
0FBAF
2E9FA
003AA
2BFAF
3E6AB
3AEA9
3B9AA
0BA36
3B8BF
2BAFB
2FBFE
3EB2B
3FFEE
00FF3
3BEB0
2EBFF
2C7AA
1EAEA
3AF6A
2BABB
2EE52
3E1AA
3AEEC
3BF33
00FFE
3FFEF
3A2CF
2B83C
3FFBB
3AC3F
3FFEF
3FBCB
2FF3E
3EFCF
37BEE
00CFA
2BBAB
08B2E
23ADA
3BAB3
2AEAA
3BEB8
28AAB
0CA6A
2FAAF
38BDF
007A2
2AABA
34AAA
2EEE7
3ABF7
2BBBF
2BAB2
3FBEA
3AFF2
1BEFE
2CCBB
00EAE
3F7BF
2BA6F
3E7EE
3FC3D
2B3FE
3BAB3
3FCCF
3BBFE
2BBEF
3BEBE
000BB
3BECB
2F3EF
386FF
3CABA
3CAF8
0BABF
3EFEF
0FEBF
2BAEA
3AAEA
00FAA
28AF8
2FFBA
29CAB
2FE83
2DBEE
1EEBE
29AAE
28AA8
2BBAB
2EBBB
00962
3FA3B
0EBEB
0FFFF
2EF38
0FFBE
32ABF
