2EEE2
3ABAA
1AEFE
3F03E
0AA8A
3ABDE
2FEFF
33F83
2A6A9
3BEBA
00ECA
2BA8E
2ABAA
2FEE8
3E3AA
2AECA
3E0AA
2ABBE
08EBF
3BBFD
2FBEB
00E3A
0AFAE
33DCB
2ADBB
3BABE
2EAF8
3BA0E
2BBAF
2EECA
2A80A
3BBE2
00EEB
3F2FF
3BFBE
3FBB2
0EE2F
3EFEF
2FCBB
2AFEA
3EDFF
223EB
28BF8
00BFF
2EEFF
2AEFF
2A8AA
2FFFF
2B0FF
3EBEF
3BEEF
0EEBA
3AEAA
28BBA
00FAA
3EFBF
3EBFF
3BEAA
23E8F
0BAFF
32FEF
3BEE3
03EA6
3AFEA
3BBB3
00CAF
23BFC
28BAE
3EFEF
2EFA2
2EEAA
2FFFF
0AFBA
32AF3
3FBFE
2FEEB
00AA2
2CABE
3BAF8
28BAA
2FBAA
3EBF8
0ABEA
28AAA
3EAEA
3A0AE
2ABAB
008A8
3FAFF
2AEFF
3CFEB
2CFEE
32F3E
2232A
22CAE
3AFA2
3EFBE
2AAEA
00A9A
2BFBA
2AFAA
23BFA
3FC89
2EABA
3F38A
3B8AF
3EBEA
2FAB2
2ABE8
00EE9
0AAA8
3FBA3
2F2AA
2BEEE
3AF2F
22FAB
3CCEC
2AFAA
38AAA
2ABBE
00AAE
1BF3A
3FAF8
3FBBB
3FAFF
3BFBB
3ACF3
3BEBF
2CFFA
3FAFB
3AFFE
00FF8
2ECAA
3AAAA
2EEF2
3FEFA
3BFB7
3FF3C
3FBFF
3FFFF
3FABA
23AE0
00FAA
3ECAB
3FEFF
3A3B8
0BEFF
3BBAF
3BFFF
3AEFB
03FB8
3BCAA
3BAFE
00FFF
0AAAA
398AE
2AEEA
2FFFF
22A0B
3A3A9
2FACF
2BCEA
3AAAD
2BABA
00EEA
2BA8B
288AC
2EEEF
3B3EA
0ECC7
2CBAB
2EBCA
2ACEA
2EBE2
2E2EB
00AAC
3FFCF
3F8FC
3EFF3
3AFBE
2F3F3
3EEFF
3FF8C
2EFBB
3BFFF
3FFEF
00FFA
2BAEE
2BCAC
2FEAE
33ED8
3EBF2
2FBBA
0EBEC
3B3CE
2FCA3
2ABE3
0092C
2A2AA
0B3A4
2BEAA
38ABF
28BFE
3BFBA
3E7A3
3BF3A
2ABEB
2AAFF
00BB3
2B6AA
2BFAA
2AEAF
3ABEA
2EAAA
2BAAB
2EBAB
2AFAA
2BBF0
23EEA
002AB
3F0EC
2BEAE
338AE
2AA2A
3BAF2
2A2AF
28AEA
3AABE
2FAAF
32AAB
00AAB
2EE3E
22AA1
02EFA
3FFAB
3FFEE
2ABAB
2CEC0
3BAEF
2FFEA
2EEFE
007BB
2E8FF
07BAA
2BA18
2FBD3
3AFEE
2ABAB
3BEEE
2BEEA
33FAA
2AAFB
00ABF
3AEFE
2FEEE
3ECCB
3ABFF
0FEFE
2EEFF
0BBEA
233FA
2FFEB
3CE3F
00AFB
2CAFE
23BAE
2CECF
3FFEE
2CFFF
3BBBF
3EFF0
32FEB
3BBFE
3EFEB
00AFF
2FFFC
382FF
3FBEA
0BFEB
3FFBF
3B3FF
33EFE
0EEFF
3EEEB
3FFAA
00FB3
2EEAA
2AA2A
3CEEE
3EEAB
0FF6A
2EEAA
2EBA8
3AF20
3BCA3
3A8CA
00AEE
20EEE
2BFAE
38CF3
3EFCF
3EAEF
3F8BB
22EFB
0BEEF
2BFFF
0FEFF
00AFF
36EAE
3AA2A
2AABE
386BA
222A8
0AAFE
2AB8F
0EAEA
228EB
2ABDA
00FEF
3AEA8
0B3BA
38EFA
38EEE
2EA8A
3BE6B
3BC2F
3AEEA
3FBBB
3AAFE
00B9E
2AB8A
3C2BB
2AB02
2BE3F
2B3BB
32EBE
33FAF
2FF8A
3AAAB
0AABA
00F2A
3FEFE
23BEE
0EFCF
3EFEB
3CCFE
0FFBF
2AFFA
23AFF
0FF8F
3FBEC
00EFF
38BBC
3AAAB
2ABEE
22B43
2BAFB
3AACE
3FAFE
3FAAA
2A2FE
2EFAB
00FBF
08AB8
22BBE
2CAEB
3CBAA
3AFEA
3EBEE
2A8BA
3AEBE
22FBE
2FF9B
00B8E
2BACE
28329
1EEAA
208F3
3AAEE
3ABAF
2FEEE
08EAA
2F0CB
2CBBF
00ABB
2FE8E
2B2BE
0CBEF
3EEAA
3EFEA
2F8FE
2BBBA
2AEEF
3FCFE
2E3EB
00A8B
22AAB
3AA6A
2CBA6
0BEEA
0AFAA
3AAEC
1EAAC
3EE8F
3E9BB
2ABAA
00E8A
3FEEE
23E2F
2B2BC
0AEEA
38EBA
2BAAF
3FECB
32BFE
2EAAB
3E222
00ECF
2BBBE
3A2A2
2EBEF
2FAE6
2EFBA
3FAFE
3BBB2
32AEC
2FA8E
2EFE8
00FFE
33FAB
3FFFC
3BBBE
2B8BE
2BFBB
3BFEA
33EEF
3FEBC
2EABF
38CAC
00FEB
2AAAB
28BAA
2BCAE
3BF2A
22AA5
2A6BA
2A8A3
3A0AA
3AC33
28BEA
00A22
28EAE
3AAEA
29BAA
2683B
2AAFE
3BAE3
2FAEF
2FDBB
2BAAA
2EB4E
00E8F
23ECE
3EAFA
3FBEE
0BEFB
3BFF3
3CFFB
332BE
0EA8F
3FCAC
0FFA3
00FBF
2BAA8
3FEAA
2ACF2
3A22A
2EEAA
3BA8A
2ABEB
32B2A
3FBFB
088EA
00E12
2F3FF
328BE
2EAFE
3FFFF
3AFFC
3BB22
3FEFF
3FFEE
3FAFE
2FBB3
00FAE
3EFFF
2FDFC
23AB0
2CAE8
3EFBB
2FFAF
3BFEA
3AAF0
3FEAB
3CABB
008EF
22EE2
2EBFC
3C2E3
33FEB
32FAF
3ECB8
2EBAB
3AFAF
2B2AF
0BC2E
00ECE
2AE3B
3A8BB
2FBE8
3FEE9
3AFBA
3BAEE
3A82F
3AFAA
3E88F
238EA
00F2E
3C0FF
2AFEF
0FAEA
1EBEA
3A0BC
29BEC
2BAEA
38EFC
2EBAA
2EA2A
007FB
2AA68
3E3FB
3BEF2
3FFAE
2E237
3B2AA
3FBCB
3FFAA
0EBFF
3AAFA
00BEE
28FBA
3FAEB
3ACBB
2BAB3
2BEBB
3BEFF
3FA3F
2FCBC
3EF8A
33F3B
00FFA
3BFFF
2FFAE
2E2FE
3ABBF
38AEE
3EBBE
3FEFB
08FFF
1BAEE
3FE3F
002FB
3EE2F
3FFCE
3BEEF
3AFBF
2FAFF
3FFBA
0FFBB
3FEAF
3FCEE
3FFBF
00C38
33FEF
2EFAF
38ABF
30BFE
3B2AF
3FFEF
3BAFB
3AEB2
2F7FC
3FDEE
00B3F
3AAEC
2EFAE
2EE3F
2A0AB
2FFAC
2AAA3
3EBBB
2AAAA
2EFFF
2EFEB
00AEF
1EAA8
2EA0B
2EAA6
2AEEF
2BFEB
2A3AA
3AA8A
38FAF
0AAAB
2A8BE
00E3E
3BA2E
3FA0B
29B32
0A8BA
3F86B
2EEEF
3FBFC
3EABB
2AAAA
3EEEA
00BEE
23EEF
28EEA
2FEBE
2EAAB
3ABC8
18AAF
2FAEA
3AAEC
2ECAF
328AF
00AFB
22FFE
2BAAB
3AF2A
2AAEF
2C3FE
2A2BB
2A8EE
28BF8
2EAEA
2ABFA
00ABB
2EAFA
2B08F
2FCF3
2EFAE
3EEFA
0ABBA
3B3BF
0BFEF
38FE1
2CF3B
00AEA
23FE8
28EF8
3B8EB
3FEE8
3CFBF
2BF8A
2BB8B
3AFFA
2382B
3BEEC
00AE2
303EB
32CFF
3BBE3
2AEAF
3FF8F
2AFAB
3EFEF
2B2F8
3BFFB
3AAFE
00BAF
3AFEE
2BEEA
2AEB3
32AAB
3F22E
1B8AC
0EBE4
0CACC
28FAA
3AAFF
00AEB
3AEAF
2AAAB
2A2AA
2B36E
282FE
2ABAE
23ACA
2AE9E
2AA29
23B8E
00BAB
2ABB8
2BEB2
2ABE0
3FCA9
2EFBA
3BB3E
28AAE
23FEA
3A431
2F89A
00FF2
28EAA
2BC22
23AAE
0AEAF
2ABAA
2EA8F
3CAEA
3BBBE
2E8AF
2FE8F
00AAE
2AA8E
2ABCF
2FBCA
3EFAE
2AFFA
3EBAA
22BB0
2BFE0
3AFFA
2B83A
00EFE
3AF23
2BCBB
2EEBF
2E2FF
0FAEE
23FBC
2BB0B
33EAB
089A2
3FECF
00BFA
083A7
3AAB8
2E8EB
3FAAA
3AA4B
3FBFA
3F8C2
22BBA
0A86A
2AEAA
00E2A
2FAFC
2ABAF
2F2EB
2EBEE
3A2E9
3CBAF
1AFFA
2AF38
3FAF2
2A38B
00ABF
29BAA
2FB8A
2ABAA
2AEBE
28AEF
2AAAA
3AEAB
08AAE
2AAAA
2AABC
00AAF
1AEA2
28A9A
2AABB
3E8E2
2EA0D
3ABA8
2AEEF
2B1EA
0AB2A
1AFBA
008FB
2CFBC
3FAFB
3FFEB
3FEFF
23FF3
3FFFF
3FFAE
2AFB3
3FEAC
2EBAE
00FAB
2FFE8
0B2FB
2BBEF
30AAA
22BB8
03A3B
3F83E
33BFF
2B83F
3FFEB
003EF
2BFA8
3EAFF
2FFEE
3FECB
3BFBB
3FFFB
3EA6E
2EEFF
3FEA8
3ECFC
00EEE
3BAFC
38EAA
2AEFE
2BB8C
32ACA
31AEE
2BF8E
23AA2
32BEE
20BAA
002FB
2AAAA
2BAAA
2AEAF
2AAAA
2EBEE
3898A
2E63A
2E23A
2A8E3
2B8AA
00EAB
32CAB
222FB
3BA82
2FE2A
3FBBB
2BE2A
3BAAB
323E2
2BAAA
328A2
00BEA
20EFC
3F88A
0BCB3
2AEB3
00EFE
3BAF3
3CEFE
23AF3
3BFAB
3CEBF
00F3B
2B2ED
2BEEA
2BCAA
32BEB
2EBAA
238AB
1E7EC
0AEFA
2E8E3
2AB2A
00EEB
3EFCE
3E8FF
3FB3B
2AAFF
33EFF
3ABFB
0EECF
2FE3A
2EEEB
33FBE
00A3F
2AAAE
3CBE3
3AEA8
3AE0E
0BBBB
2AEAB
3FB6F
2BFAB
1AC8B
0BCBE
00A6A
0FEBE
0A8CE
2AAA2
2BBBC
2BAFB
3AFEF
3BEEE
2E3AB
2AAA2
2EBAA
00BAA
3EEEF
38ABB
2AFAE
2BB86
0BABB
3EFEE
3FAEE
3E2AE
32C18
32FEA
00F0B
3A8FE
3EAFB
3FFCE
3E3FF
0FFEF
22EFB
3FEA2
2CEB3
0EFEF
3AFF2
00BCE
23FDB
238FB
3BFAF
3BEEA
2FFBB
2CF2A
3ABAE
2EFFA
22BAB
3AEEE
00FAC
2FBB3
3C8BF
2C3FA
3FEBA
3BFBF
3FFF2
3BBFF
2EEAF
3FBFE
2FFCF
00FFE
2AAAF
23A9B
2AEFA
26AA4
2AAAA
3AA8A
2EAAE
23AE2
2AF0F
2EBA7
00BFB
3AFFA
3EAFB
383EA
2BE8E
2BA8B
3AF08
3EFFC
2FFBC
3EE8B
03FEA
00FAA
2AF93
3FE3A
3ABBA
3AABA
2FBAF
2A2FA
3CAE8
2EA82
22FAB
3AA3E
008EB
2BFCA
2B3EF
0BE2F
32F2C
2FA3E
2BEAB
2FBFB
3BFEE
3EFAF
3CCFB
008AE
2FF2E
2FEF2
2BBFB
2F2FF
3CB3F
3B3CF
0BCEF
2FF3B
2FAEB
3F2FE
00FFF
32AAB
2EEBC
0FA8C
0FDAA
2EB2F
3BFAA
3A3EF
0ABAA
26F8B
06AF2
008EB
2ABAA
28AA2
2BAEA
2EAEB
3EFEE
28AAB
2EBEA
38AEF
23EEA
0ABBC
00A33
3ECFF
02BFB
088AA
23BFF
3FACF
3B3EF
0FEFB
2FAFA
2BAFA
3A3BE
00BF3
3EEFB
3FFFF
3BEAA
2B0EF
2ECFF
2AFFB
32FFA
320FA
38F2A
3ABBA
00BEF
2EEAE
2B38B
28AAA
3AFEE
2EFEE
30BBA
2AEE8
2BEDA
2A7B3
2BBF2
00AEF
2FBF2
2ABAF
2EFAB
3FFEE
2EABA
3FBBB
2B8EE
26FBF
2F7FE
2FCCA
00A2B
3F8FE
30FEC
0F3E3
3EECB
3EFEC
0F33F
363FE
3ABFF
3FBA0
3FB3B
00AFF
0F8FC
1A82E
20EAE
323EE
3AEAA
3FB8F
2BECE
28B3F
2FFCA
3CA3B
00AAE
2BFFE
3CEFA
33F3F
3FEFF
3FF3C
3FFFF
33EBC
2CEFB
3FFAA
2CFFB
00F2F
3FAAA
2EAE8
2B6EA
2BCFA
0A88B
3AEA6
2EA3B
2CBB8
2EAAA
2BEE9
00EAB
2CEFE
2BBAB
2FEEF
3ABAE
2AAFA
3CA3E
23BEA
2BFEF
28BFE
2FF2B
00EFA
3EFB3
2E0EA
2A8BB
2F2BF
2FAFE
3AFEA
3B2EF
38CE3
2BAAB
3BE8E
00E3B
32EAC
0CB3E
0B36A
2AE3F
2BEAE
2FEEA
3FEEB
0FABA
2AFAB
3ABBE
00BEB
2AAAA
2AAAA
2BAE2
32EEA
02AAA
2AA6A
2ABAF
2ABEA
2AAAB
2AAEA
00AAE
3ECA2
3FEEB
3BBBE
3AAAB
2FABE
2BEFA
3F32B
3E3FA
2AEA3
3E3E0
007A3
3ABAF
3FEF3
3AEEB
3A0EE
078FB
28DEF
288AE
3FBAC
0BEAF
3AAA2
00B8E
2FEEF
2BB2E
2F8A8
3FFFF
3FEEE
2FBEF
2EEE3
2AEBF
2EFEE
2AABC
00AAF
2EEFF
3A0AE
2E2F0
2BEAE
32FFA
03F3C
2BEBE
3AEEF
3FAAE
2F2AB
00ABA
3ABAE
2EAFB
3AFBA
2AA8B
2BEFF
3A0EA
3A2EF
2AAAA
2ACAA
38ABE
007AB
0FF2E
2BF2E
0BAEB
28FEC
32AEC
2BFBF
3EECA
22EB3
388A8
0FE8B
008CF
2ACBE
3EA3E
2AAE2
2ABBB
28BCC
28AE3
2BAEE
2AAAA
0BEAA
3ABBC
00EBF
2AFAA
3E2BB
2AACA
2FEFE
3ABAB
333ED
3B2FE
3AFC3
3BAAA
33AB3
00CEA
2BA2E
28BAD
2AAAA
2A8FA
2A8AE
2FBA3
07FEF
2BEAB
2B6A3
2AAAE
00ABF
3FFEE
30EFB
3BBAA
2AEEF
3BABB
2AEE3
3B2EE
2EABA
2AEEB
3EBAE
00FAF
3BBFB
2A8AF
2EACF
3BBEE
2AAEA
3FAF3
2EEFA
28F3A
2CBEA
28EEA
008AE
2BA86
3288A
2AEFA
3FEBB
2AA8E
3AFEA
2ABAF
23EAA
3B8B2
2B93E
00E3B
2A8AA
2FABA
2EECA
2EEEC
08FEF
3A2BA
3EAAF
3FBEF
2BAAA
2BBBC
002AB
3E8EB
3BECB
3FBEA
2ABEB
2EFBE
2AAF7
2AFEE
2ABCA
3AFE0
3ABAB
00BEB
2AEBE
3E8AB
2ABEA
23ABF
2EAAE
2AFAB
2EAEE
2A2AA
2EEA6
2ABBE
00AAB
38BFF
3EC2B
0CFBE
2EBBB
2FE83
2E22C
32BBB
3FAEE
3A2EE
3CFEB
00BFB
3A82B
2EF0A
2FE32
2CEBF
2EBA8
2BAAE
0ABEB
382FF
2AC8B
3A9F2
00AFE
33EFF
2F32F
2EEAC
0AF6E
23AAB
2EEAE
3FED3
2EFEC
2FBAC
3AAEC
00B9A
233AF
00B0E
3EAF3
3CEEE
3FFE2
2F8AB
02FEB
3BFAF
2F6EB
0FE03
00A3E
2B0BE
2ABBE
2EFE3
3EFBE
3ECE2
2F8FF
2AFBB
2BC23
3B8FE
3BAFC
00AFE
3E0AA
2EEEA
26AB8
1B2BE
0BBA8
28FAD
2AA2E
0BABF
1A9AA
3BABE
00ABA
2AFAA
2F3CA
3ACEC
38EBF
3CBCE
2B28A
3B3E3
3BFEA
273AB
320FF
00AAF
2FFCE
3BAF2
3FFEF
3F0EB
3F8FC
0FC8F
2FBEE
3AFF8
2FE2F
3FFEF
00A2F
2FFAE
3BBEF
3ABE3
2BFBF
2EBEE
2BB0B
3ACCE
2BABB
3FBF3
2FF8F
00ABF
3BAEF
2FFAF
2AEBF
3ABAB
3E2EE
2F8BF
2FBFA
3EBCE
0EFCF
3C2E3
00AFF
3B8A8
28FFB
0BAAA
3EAEA
3EF7B
23E24
22BAA
3A2EA
2C3A2
2AAEB
00A9F
2A8FA
3BABA
2ABEA
2AEBE
2ECAA
3EBFF
2BABE
232AA
3BABA
2AAA8
00ECA
232BA
3BAFA
2ABAA
3BE82
3B8BB
3AECF
3326E
2FEAB
3B8CB
2FBEB
00F6D
2E2AE
2C3AD
2AEAA
3EFE8
3E3DE
2876B
228EB
38288
2EFC3
2ABEE
00AFF
2EFEE
3BBCF
3FFEF
2FACE
38FFE
3BFF3
3FEEE
3FBFF
3CFAB
3FF3F
00CAB
2ABAA
33EAA
2AEB2
22BFA
2CFFA
3AAEE
2FBAB
3E2EF
38A89
3E80B
00CEA
0AFBE
2AA3B
38BAB
3AEAE
2BFAB
2AFEA
0AEAE
2ABAA
2AEAA
0A3A2
00A7E
2ACAE
3E2EA
2AACA
2FAFB
3A3EC
2AB2B
2BAEE
2AABC
2BAAB
3ABBE
00B23
2AAAA
2BEAA
2AFBA
03A0B
2EBAE
0AAFE
2FFBB
3E916
0AAC9
2BBAA
00FE3
3FEAB
2ABBB
0ABA2
2A3AE
07E2A
28FA0
3EEEA
3FE82
2E8A2
3ABEE
008AB
3EB8E
3EE3F
3BBEA
2FCEE
3BBBB
32FEA
3AEAF
32FBA
3AEB2
3BBBE
00EEA
202EE
2BAAB
29E8B
2AA3A
2BAFA
3FDFD
2FB7B
2FE8B
2AA8E
32332
00BBA
2AAEA
1BFA2
2AEBA
3AB2B
2EEA8
3BAAB
2EB0B
3BB8E
2ABEB
2AEFA
00AAF
2AA9A
2AB62
22BFA
0BFEA
2BAEA
3AEAA
2EABF
3BFAA
2A8F8
13FBA
00EAA
3EEEE
3FEFA
3BAAA
1A8CB
3FCBF
22EBB
322EA
2BAFC
2EFAB
3AB8E
00BAB
1AFA2
2BECA
2BAEC
3FAEA
2EFBF
3BFAB
0B8AE
3ABEA
2A8AB
22FEB
0082E
2EFAE
23FFA
3BABA
2FFFF
3E2CE
3FFEB
0FAE3
0BEFB
28AA8
2BAFE
00AF3
2AEA2
3EAEA
0AAAA
2FAFE
3BBAF
3AFAB
3EA2E
0EA8A
2FABA
3AE82
00EE7
0B2AB
3AEBB
0AABA
3FE8A
3BBBB
3A2E0
3BAAF
3EAE2
3AEAB
3E8A2
00F2A
2AF8A
3E1BB
0FBAA
2B23B
2AABF
3EEFA
3A22A
2EAFA
32EAB
2AEEE
00FAB
1BBB2
3AA3F
3EEE8
3BEBE
3823B
3CAEE
03ABF
2EFCB
38ECE
28BFA
00FAA
2AA8A
2BB2E
2BEEA
3AEAE
3DAA2
2FBA8
2EFEA
3BBE2
02FBF
2AAEB
009AF
0EAF0
2ABEF
2EB6A
2BFAE
0EEFE
2F8AB
3EFEC
3AE0A
2CBEB
2EB3E
00BAF
2EE82
33B3E
203A3
3BFA3
2BECF
3ABA0
3FEFE
0EEBF
3EAAE
2FFCC
00CAF
3CEFF
3AACF
2EFAE
2BFAA
3AFBA
3FEFE
33BAE
0EAEF
3F8AA
2EB2B
00FAB
0FFEE
23BEC
3EEBB
3FFBF
2B3FF
0EB8F
3CFFB
2A2BB
1CFFF
2CF8C
008A3
0BA3B
3AFAA
2A88E
3FAF9
29AAA
38AEF
20AFE
32FBA
3E8FF
23FE6
00EFA
28A3A
3EBFE
3EC8A
2AEFB
0FFAF
2E2FA
3EBBB
282A3
3BCEB
2BABE
00FAE
0BEFC
3F3EB
3FFAB
38EEF
2BFFF
2EFBB
3EFEC
2FFFB
3F3AF
3EBFF
00BAF
